<pad>	0
<unk>	0
<s>	0
</s>	0
▁n	-0
▁a	-1
▁m	-2
▁w	-3
▁na	-4
▁s	-5
▁no	-6
▁wɔ	-7
an	-8
de	-9
▁b	-10
yɛ	-11
aa	-12
▁ne	-13
▁ɔ	-14
ra	-15
▁k	-16
▁h	-17
yi	-18
▁sɛ	-19
ye	-20
ma	-21
fo	-22
on	-23
en	-24
▁ɛ	-25
▁wɔn	-26
▁mu	-27
▁me	-28
▁so	-29
▁as	-30
▁an	-31
▁wo	-32
re	-33
fi	-34
▁d	-35
ko	-36
ri	-37
rɛ	-38
▁mo	-39
am	-40
wu	-41
deɛ	-42
so	-43
ɔn	-44
▁ho	-45
▁nn	-46
▁yɛ	-47
se	-48
sa	-49
ka	-50
▁t	-51
yin	-52
foɔ	-53
▁awu	-54
ia	-55
rade	-56
▁awurade	-57
▁ad	-58
pa	-59
om	-60
▁我	-61
▁ab	-62
eɛ	-63
▁nk	-64
和華	-65
耶和華	-66
yerɛ	-67
▁o	-68
im	-69
yinaa	-70
su	-71
▁ah	-72
yan	-73
ro	-74
▁nt	-75
fa	-76
▁nyinaa	-77
ene	-78
ya	-79
ie	-80
wa	-81
▁mm	-82
um	-83
▁mma	-84
▁ye	-85
pɔn	-86
firi	-87
▁ak	-88
▁ma	-89
▁爾	-90
▁ba	-91
▁e	-92
bɛ	-93
is	-94
▁bɛ	-95
kopɔn	-96
yankopɔn	-97
sɛ	-98
▁bi	-99
▁de	-100
di	-101
▁yi	-102
te	-103
▁on	-104
in	-105
ane	-106
▁以	-107
▁asa	-108
▁ka	-109
▁kɔ	-110
un	-111
we	-112
上帝	-113
el	-114
to	-115
▁deɛ	-116
▁se	-117
▁g	-118
wɛ	-119
▁kyerɛ	-120
▁ɛn	-121
▁p	-122
▁yɛn	-123
▁af	-124
ua	-125
▁nso	-126
kɔ	-127
▁da	-128
▁be	-129
▁y	-130
isra	-131
da	-132
▁at	-133
▁hɔ	-134
be	-135
▁ag	-136
ipa	-137
▁am	-138
▁fi	-139
▁ɔh	-140
ba	-141
si	-142
iara	-143
▁asase	-144
▁其	-145
ɛm	-146
▁anim	-147
▁onyankopɔn	-148
ron	-149
▁baa	-150
wɔ	-151
▁kyerɛɛ	-152
wan	-153
▁wɔa	-154
▁isra	-155
▁israel	-156
▁nan	-157
▁ɔn	-158
▁ani	-159
色列	-160
▁asɛm	-161
wi	-162
em	-163
ɔne	-164
bɔ	-165
unu	-166
▁ara	-167
▁ase	-168
yɛn	-169
oa	-170
▁f	-171
wo	-172
▁mp	-173
▁saa	-174
ɛn	-175
uro	-176
▁mon	-177
ru	-178
mm	-179
ti	-180
▁耶和華	-181
▁nyankopɔn	-182
ena	-183
▁si	-184
▁nti	-185
bu	-186
oɔ	-187
▁彼	-188
▁akyi	-189
yɛɛ	-190
▁ano	-191
▁nsa	-192
ni	-193
ɔre	-194
▁ns	-195
▁nkyɛn	-196
▁ob	-197
uo	-198
ta	-199
ren	-200
▁re	-201
▁fa	-202
▁nnipa	-203
▁不	-204
▁wɔde	-205
▁nanso	-206
kyerɛ	-207
▁yesu	-208
▁firi	-209
▁ɔde	-210
▁蓋	-211
▁則	-212
▁而	-213
以色列	-214
umi	-215
ea	-216
▁soɔ	-217
▁sa	-218
▁ɔm	-219
hu	-220
▁maa	-221
sɛm	-222
rɔ	-223
▁ko	-224
▁adu	-225
▁bɔne	-226
▁ako	-227
gye	-228
▁wa	-229
▁anaa	-230
▁ama	-231
▁及	-232
yia	-233
▁agya	-234
▁mɛ	-235
▁hwɛ	-236
ho	-237
rima	-238
▁te	-239
▁biara	-240
▁ɔhene	-241
▁ap	-242
hwɛ	-243
▁乃	-244
▁pa	-245
▁adi	-246
hyɛ	-247
▁為	-248
▁必	-249
▁ɛnn	-250
▁yu	-251
▁di	-252
hunu	-253
▁惟	-254
▁如	-255
▁sɛdeɛ	-256
▁afe	-257
耶穌	-258
▁aba	-259
▁亞	-260
yam	-261
gya	-262
tɔ	-263
▁fie	-264
▁ɛfiri	-265
▁與	-266
▁yuda	-267
tu	-268
▁nea	-269
▁yo	-270
▁使	-271
▁nko	-272
▁efi	-273
▁ɔbɛ	-274
kye	-275
▁ɛyɛ	-276
dan	-277
ant	-278
▁wɔbɛ	-279
baa	-280
mma	-281
bo	-282
▁abu	-283
▁bo	-284
sua	-285
bea	-286
yina	-287
▁mmi	-288
seɛ	-289
▁bɔ	-290
▁en	-291
▁mf	-292
▁在	-293
▁mede	-294
▁ha	-295
kron	-296
som	-297
▁nie	-298
suo	-299
▁aho	-300
▁有	-301
▁daa	-302
▁baako	-303
▁即	-304
wid	-305
▁dawid	-306
mu	-307
pɛ	-308
▁wu	-309
▁onipa	-310
▁nni	-311
wie	-312
▁din	-313
▁nka	-314
之曰	-315
▁ɔman	-316
▁ayɛ	-317
▁kɔɔ	-318
▁aman	-319
▁自	-320
於爾	-321
pɔ	-322
ronkron	-323
bi	-324
大衛	-325
ɔdeɛ	-326
▁man	-327
▁nkwa	-328
▁nsɛm	-329
▁mmara	-330
sal	-331
▁nkɔ	-332
▁ɔk	-333
猶大	-334
▁kuro	-335
▁ɔyɛ	-336
▁ya	-337
twe	-338
raa	-339
▁woa	-340
▁obiara	-341
uu	-342
ɔfoɔ	-343
ono	-344
▁kwan	-345
▁afɔdeɛ	-346
▁遂	-347
▁afei	-348
▁勿	-349
▁ɛnna	-350
▁曰	-351
dwo	-352
▁ɔs	-353
mfa	-354
▁ɛbɛ	-355
tumi	-356
▁亦	-357
▁akɔ	-358
▁gye	-359
▁mose	-360
▁bio	-361
kum	-362
祭司	-363
onh	-364
▁ɔka	-365
uan	-366
uru	-367
▁因	-368
▁enti	-369
ini	-370
▁nh	-371
▁kronkron	-372
po	-373
▁asafo	-374
foro	-375
▁yeru	-376
▁dɔ	-377
▁ɛwɔ	-378
▁firii	-379
aman	-380
▁fam	-381
▁此	-382
ee	-383
▁bere	-384
▁當	-385
▁to	-386
hene	-387
salem	-388
▁yerusalem	-389
▁ti	-390
▁adeɛ	-391
▁ɔba	-392
▁efisɛ	-393
enu	-394
▁nne	-395
lo	-396
▁men	-397
▁ɛnyɛ	-398
耶路	-399
▁sɛn	-400
▁nna	-401
▁ɔno	-402
▁凡	-403
▁以色列	-404
撒冷	-405
wuma	-406
摩西	-407
耶路撒冷	-408
ree	-409
▁mpa	-410
oma	-411
▁ade	-412
▁den	-413
▁又	-414
ten	-415
▁mi	-416
sie	-417
▁obi	-418
dɔ	-419
fra	-420
▁kaa	-421
ria	-422
▁至	-423
rɛɛ	-424
▁無	-425
上帝耶和華	-426
▁afiri	-427
israim	-428
▁misraim	-429
▁hene	-430
ɛseɛ	-431
le	-432
▁pɛ	-433
amfo	-434
▁我必	-435
於其	-436
▁耶穌	-437
▁sɛnea	-438
於我	-439
yeɛ	-440
soɔ	-441
ware	-442
▁約	-443
▁mere	-444
twa	-445
wene	-446
▁故	-447
tena	-448
▁若	-449
maa	-450
wam	-451
ban	-452
▁ɛh	-453
埃及	-454
▁won	-455
▁aka	-456
dii	-457
ris	-458
▁yɛɛ	-459
tɛ	-460
▁或	-461
▁sika	-462
ku	-463
▁且	-464
ii	-465
ulo	-466
▁今	-467
▁ati	-468
▁nyɛ	-469
▁所	-470
▁moa	-471
▁akoma	-472
▁mmienu	-473
▁abo	-474
onhom	-475
▁he	-476
▁afi	-477
▁fo	-478
gu	-479
▁anka	-480
▁nsam	-481
人之	-482
▁aso	-483
▁afɔre	-484
tie	-485
▁teɛ	-486
▁su	-487
den	-488
▁el	-489
▁mun	-490
▁ahyɛ	-491
▁kris	-492
tan	-493
▁kristo	-494
利亞	-495
▁honhom	-496
▁mmarima	-497
▁akyiri	-498
▁ntam	-499
▁上帝	-500
▁nku	-501
kuo	-502
▁wɔre	-503
yaa	-504
▁israelfoɔ	-505
hwe	-506
▁主	-507
▁ɛno	-508
▁adwuma	-509
uon	-510
▁bu	-511
▁ɔso	-512
▁人	-513
▁是	-514
siane	-515
▁mmɔ	-516
uanom	-517
erɛ	-518
ann	-519
▁asom	-520
▁du	-521
▁俾	-522
▁nkuro	-523
▁ada	-524
▁berɛ	-525
▁於	-526
▁ate	-527
▁ɔre	-528
enee	-529
▁ɛtɔ	-530
▁ahen	-531
基督	-532
者之	-533
▁ɛho	-534
▁biri	-535
▁pe	-536
▁wɔyɛ	-537
▁kan	-538
uonyam	-539
▁ɔbarima	-540
▁tumi	-541
do	-542
▁mpan	-543
▁wobɛ	-544
la	-545
ram	-546
▁ɛsɛ	-547
▁mpo	-548
boa	-549
▁akyerɛ	-550
▁dii	-551
▁hyɛɛ	-552
▁非	-553
▁afa	-554
isaa	-555
▁mfa	-556
▁ana	-557
▁amanaman	-558
kaa	-559
▁nam	-560
▁nsu	-561
爾之	-562
▁wɔka	-563
ne	-564
▁monn	-565
▁wɔwɔ	-566
kan	-567
umu	-568
▁nsuo	-569
▁faa	-570
▁ren	-571
於耶和華	-572
▁mfiri	-573
tia	-574
上帝之	-575
▁ɔsoro	-576
其所	-577
▁nnan	-578
ha	-579
son	-580
▁mmu	-581
bɔɔ	-582
biara	-583
▁kasa	-584
▁hu	-585
▁nua	-586
yira	-587
先知	-588
▁ɔbaa	-589
▁nta	-590
▁yei	-591
frɛ	-592
▁ɔwɔ	-593
我儕	-594
wetɛ	-595
▁ogya	-596
▁kɔsi	-597
inom	-598
▁ato	-599
die	-600
▁ni	-601
▁le	-602
▁mmoa	-603
▁ntoma	-604
▁abɔ	-605
▁mme	-606
▁nok	-607
▁agyan	-608
▁aduane	-609
sɛe	-610
uafo	-611
yansa	-612
▁nnom	-613
▁bɛyɛ	-614
▁yere	-615
▁ɛbɛyɛ	-616
▁見	-617
sane	-618
gyina	-619
▁bepɔ	-620
▁kae	-621
tee	-622
▁aduon	-623
▁王	-624
兄弟	-625
▁大衛	-626
▁爾其	-627
kyia	-628
teɛ	-629
▁abusua	-630
▁既	-631
go	-632
▁將	-633
▁ɔne	-634
▁nkoa	-635
nya	-636
▁願	-637
▁saulo	-638
rɔn	-639
▁wura	-640
dua	-641
kyi	-642
▁ahem	-643
isa	-644
▁爾之	-645
▁momm	-646
▁hyɛ	-647
▁mogya	-648
▁然	-649
ran	-650
▁mmaa	-651
▁atifi	-652
ase	-653
taa	-654
▁hwe	-655
▁beb	-656
▁seɛ	-657
▁woɔ	-658
▁kɛseɛ	-659
▁wode	-660
▁nkyerɛ	-661
▁tena	-662
kɔɔ	-663
謂之曰	-664
hyia	-665
▁soro	-666
為我	-667
sia	-668
▁nuanom	-669
wom	-670
▁yako	-671
bere	-672
▁眾	-673
▁我儕	-674
▁kra	-675
▁ten	-676
duru	-677
雅各	-678
waa	-679
yame	-680
▁adɛn	-681
▁aseɛ	-682
爾所	-683
▁mmom	-684
掃羅	-685
▁皆	-686
▁abuf	-687
▁asi	-688
▁odi	-689
▁eyi	-690
▁nokware	-691
ue	-692
anan	-693
▁pii	-694
kyɛ	-695
▁adan	-696
doɔ	-697
bukyia	-698
▁nkurɔ	-699
▁bebree	-700
之於	-701
言之	-702
▁akoa	-703
tene	-704
▁asomdwo	-705
▁afɔrebukyia	-706
▁do	-707
anu	-708
▁ɔsɔfoɔ	-709
▁致	-710
▁gyi	-711
▁yeinom	-712
▁ɔb	-713
hye	-714
rant	-715
▁nnwan	-716
之人	-717
▁gyidi	-718
▁耶	-719
▁一	-720
▁dwetɛ	-721
mmu	-722
dane	-723
▁sal	-724
▁ɔte	-725
▁asuafo	-726
faa	-727
▁gi	-728
▁owu	-729
me	-730
umm	-731
▁agyanom	-732
▁hwan	-733
利未	-734
san	-735
yii	-736
▁sɔre	-737
▁wɔte	-738
▁agu	-739
▁basa	-740
▁yakob	-741
我之	-742
▁adwene	-743
sɔre	-744
▁ke	-745
▁可	-746
bel	-747
▁gu	-748
oɔden	-749
▁atɛn	-750
▁hunu	-751
▁何	-752
▁anan	-753
▁biribiara	-754
wia	-755
▁ben	-756
iɛ	-757
▁apam	-758
wen	-759
▁mfi	-760
▁nnɛ	-761
unkum	-762
ɔfo	-763
sɔ	-764
▁lewi	-765
▁俱	-766
我所	-767
neɛ	-768
too	-769
yifoɔ	-770
▁gya	-771
▁twe	-772
ɛse	-773
tire	-774
▁dan	-775
▁ɛda	-776
▁fil	-777
hwehwɛ	-778
rah	-779
▁aa	-780
▁nsra	-781
▁我將	-782
▁斯	-783
▁mfra	-784
oni	-785
耶和華之	-786
▁aaron	-787
▁ngo	-788
▁mpem	-789
wane	-790
▁ntomadan	-791
nim	-792
▁bɔɔ	-793
▁kyɛ	-794
▁ku	-795
ɛnsa	-796
▁abɛ	-797
▁momfa	-798
▁asɔfoɔ	-799
▁asu	-800
▁tee	-801
omo	-802
▁ɔkaa	-803
▁bɛba	-804
▁hyia	-805
之子	-806
之上帝	-807
suro	-808
▁wia	-809
門徒	-810
▁nson	-811
▁ɔha	-812
na	-813
nie	-814
▁ansa	-815
▁akwan	-816
pe	-817
之者	-818
▁awo	-819
▁循	-820
以色列人	-821
▁mmra	-822
▁mobɛ	-823
▁ahyia	-824
▁mpae	-825
▁摩西	-826
▁wɔmfa	-827
▁afo	-828
▁wiase	-829
▁由	-830
mfo	-831
nye	-832
▁yɛa	-833
▁mfeɛ	-834
▁耶和華諭	-835
dom	-836
kia	-837
sɛn	-838
▁ga	-839
▁emu	-840
▁sii	-841
tifoɔ	-842
▁sene	-843
▁mmiɛnsa	-844
▁nyansa	-845
daa	-846
▁ahemfo	-847
▁anadwo	-848
▁昔	-849
▁nwo	-850
tua	-851
▁bɛma	-852
▁asɔre	-853
之地	-854
▁猶大	-855
ano	-856
hia	-857
▁ɔyɛɛ	-858
▁行	-859
▁nsraban	-860
won	-861
kyere	-862
▁yudafo	-863
▁請	-864
而行	-865
▁od	-866
▁po	-867
▁dɔm	-868
▁kye	-869
▁mene	-870
▁mmusua	-871
▁salomo	-872
支派	-873
▁momma	-874
比倫	-875
tenaa	-876
▁anom	-877
▁wɔan	-878
▁祭司	-879
▁ɛhɔ	-880
▁nnua	-881
▁filis	-882
kasa	-883
▁nto	-884
巴比倫	-885
之事	-886
▁bɛn	-887
▁dɛn	-888
▁anaasɛ	-889
▁mama	-890
▁babel	-891
羅門	-892
▁aha	-893
▁esiane	-894
之耶和華	-895
▁wɔne	-896
ɔso	-897
some	-898
▁yose	-899
▁ɔkɔ	-900
萬軍	-901
forɔ	-902
▁fii	-903
▁yie	-904
▁ahoɔden	-905
werɛ	-906
▁fara	-907
▁yosef	-908
▁ta	-909
▁farao	-910
amm	-911
▁dua	-912
▁基	-913
woo	-914
▁bae	-915
▁bisaa	-916
▁mɛma	-917
▁abrah	-918
▁baanu	-919
▁民	-920
isi	-921
▁abraham	-922
▁animuonyam	-923
▁西	-924
之言	-925
為爾	-926
▁tu	-927
▁耶和華曰	-928
▁akyire	-929
▁豈	-930
二十	-931
rim	-932
▁及其	-933
▁meyɛ	-934
▁耶和華歟	-935
▁ahennie	-936
▁tenabea	-937
牧伯	-938
unumu	-939
▁asomdwoeɛ	-940
yɛfo	-941
▁nte	-942
▁anuonyam	-943
之日	-944
▁fɛ	-945
▁wɔkɔ	-946
燔祭	-947
hyɛɛ	-948
▁adɔ	-949
▁ahu	-950
耶和華所	-951
▁lewifoɔ	-952
▁主耶和華	-953
▁aduonu	-954
▁nnum	-955
▁anant	-956
▁希	-957
ani	-958
▁wɔren	-959
▁宜	-960
▁agye	-961
▁nwoma	-962
▁nant	-963
▁atamfo	-964
▁各	-965
▁毋	-966
win	-967
▁nim	-968
▁ɛnneɛ	-969
▁agyapa	-970
利士	-971
lea	-972
oɔma	-973
▁obe	-974
▁ɔbɔ	-975
▁nnoɔma	-976
猶太	-977
ease	-978
▁tie	-979
li	-980
▁取	-981
▁adaka	-982
▁nhyira	-983
▁瑪	-984
書亞	-985
▁時	-986
▁kwa	-987
▁min	-988
▁foforo	-989
▁置	-990
於彼	-991
▁yiye	-992
▁ɔfiri	-993
▁ɔhyeɛ	-994
▁anyame	-995
kae	-996
bɔne	-997
▁guu	-998
▁mmɛ	-999
▁pan	-1000
pɔnkɔ	-1001
▁home	-1002
▁kɛse	-1003
▁ɔkwan	-1004
▁basafa	-1005
利未人	-1006
deɛn	-1007
▁meren	-1008
法老	-1009
▁ɔmaa	-1010
▁ɛdeɛn	-1011
▁filistifoɔ	-1012
rantɛ	-1013
▁nkrantɛ	-1014
▁欲	-1015
▁歷	-1016
▁nipa	-1017
▁gyina	-1018
soa	-1019
tro	-1020
wɛn	-1021
▁爾曹	-1022
berɛ	-1023
hwam	-1024
▁werɛ	-1025
▁悉	-1026
▁aboɔ	-1027
▁buaa	-1028
sii	-1029
▁wan	-1030
▁woyɛ	-1031
mmarima	-1032
爾者	-1033
toa	-1034
▁nkaeɛ	-1035
▁paulo	-1036
▁諸	-1037
▁與其	-1038
▁往	-1039
▁米	-1040
▁boa	-1041
以色列族	-1042
▁大	-1043
▁立	-1044
afoɔ	-1045
bisa	-1046
▁但	-1047
▁哈	-1048
▁abe	-1049
▁ɔsom	-1050
之所	-1051
▁awie	-1052
kyeree	-1053
▁anigye	-1054
我曰	-1055
eni	-1056
▁sane	-1057
▁撒	-1058
斯土	-1059
▁hye	-1060
du	-1061
▁未	-1062
列祖	-1063
我者	-1064
於地	-1065
▁sim	-1066
▁bɛka	-1067
▁bosome	-1068
hoɔ	-1069
▁mayɛ	-1070
四周	-1071
與爾	-1072
wadeɛ	-1073
▁yosua	-1074
▁ɔse	-1075
▁nkurɔfo	-1076
▁依	-1077
中之	-1078
二人	-1079
▁ge	-1080
▁mmo	-1081
▁ɛdi	-1082
▁ɛse	-1083
hunuu	-1084
▁amane	-1085
▁atemmu	-1086
▁ɛne	-1087
▁petro	-1088
mɔne	-1089
▁ɔko	-1090
▁ɛpo	-1091
▁nkon	-1092
列邦	-1093
為之	-1094
▁tɔ	-1095
mfoɔ	-1096
pɔmma	-1097
umuyɛ	-1098
▁ɔmfa	-1099
▁dodoɔ	-1100
▁mmepɔ	-1101
▁foforɔ	-1102
▁mpanim	-1103
hoa	-1104
wiri	-1105
▁yoh	-1106
▁ɛre	-1107
爾上帝耶和華	-1108
amu	-1109
▁mode	-1110
▁迨	-1111
之以	-1112
▁yeho	-1113
▁abusuakuo	-1114
與其	-1115
mmaa	-1116
▁abi	-1117
▁bobe	-1118
▁amumuyɛ	-1119
及其	-1120
▁hwee	-1121
▁ankasa	-1122
▁reba	-1123
▁免	-1124
brɛ	-1125
▁我則	-1126
▁bra	-1127
▁ɔdi	-1128
萬軍之耶和華	-1129
▁ananmu	-1130
不能	-1131
居民	-1132
拉罕	-1133
▁ɔbo	-1134
radeɛ	-1135
▁gyee	-1136
▁示	-1137
▁apue	-1138
▁wore	-1139
▁ɛserɛ	-1140
kwa	-1141
tuu	-1142
▁以其	-1143
▁掃羅	-1144
言之矣	-1145
▁ata	-1146
▁aye	-1147
▁ɛte	-1148
▁apono	-1149
onhwa	-1150
▁agyapadeɛ	-1151
ke	-1152
▁謂	-1153
▁迦	-1154
使者	-1155
▁ɔt	-1156
▁於是	-1157
▁san	-1158
▁ɔdɔ	-1159
▁adwa	-1160
▁hyeɛ	-1161
▁夫	-1162
昆弟	-1163
onam	-1164
▁yoa	-1165
▁pono	-1166
▁mmammaa	-1167
一人	-1168
葡萄	-1169
eɛma	-1170
▁nneɛma	-1171
fɛ	-1172
子孫	-1173
huu	-1174
▁其人	-1175
▁咸	-1176
之而	-1177
▁kum	-1178
▁woo	-1179
▁aboa	-1180
▁koraa	-1181
行之	-1182
rdan	-1183
▁bet	-1184
▁abufu	-1185
▁yordan	-1186
dɔm	-1187
ɛnam	-1188
▁efie	-1189
easeɛnam	-1190
▁我之	-1191
▁moab	-1192
▁kɔsii	-1193
為其	-1194
mmɔ	-1195
gyee	-1196
▁amon	-1197
▁efra	-1198
▁monyɛ	-1199
▁得	-1200
不得	-1201
▁蓋我	-1202
▁尚	-1203
kra	-1204
▁ɔma	-1205
▁aban	-1206
ɔpa	-1207
▁彼必	-1208
yiaa	-1209
▁too	-1210
▁wobe	-1211
▁anɔpa	-1212
如是	-1213
ome	-1214
▁akyɛ	-1215
▁居	-1216
摩押	-1217
聖所	-1218
▁eb	-1219
▁pi	-1220
frɛɛ	-1221
wɔtwe	-1222
▁ahan	-1223
ɔnefoɔ	-1224
▁adua	-1225
▁是日	-1226
▁爾所	-1227
▁kɔn	-1228
▁ofi	-1229
wonwa	-1230
▁baeɛ	-1231
雅憫	-1232
▁ay	-1233
▁至於	-1234
soma	-1235
yamin	-1236
▁yɛbɛ	-1237
▁wɔfiri	-1238
▁anantwie	-1239
fom	-1240
yɛne	-1241
▁twa	-1242
renee	-1243
▁benyamin	-1244
▁厥	-1245
安息	-1246
法蓮	-1247
祈禱	-1248
rom	-1249
▁babaa	-1250
▁abufuo	-1251
▁惡	-1252
▁攜	-1253
boɔ	-1254
rub	-1255
於上帝	-1256
homa	-1257
▁koma	-1258
▁nifa	-1259
▁anomu	-1260
▁adanse	-1261
▁apɔnkɔ	-1262
▁ntadeɛ	-1263
▁yohane	-1264
ona	-1265
pem	-1266
▁我乃	-1267
▁雅各	-1268
korɔ	-1269
▁som	-1270
kɛseɛ	-1271
▁amma	-1272
▁efraim	-1273
▁asɔredan	-1274
者也	-1275
yifo	-1276
▁ɛso	-1277
▁ɔnam	-1278
▁agyina	-1279
▁巴	-1280
保羅	-1281
見之	-1282
贖罪	-1283
便雅憫	-1284
▁sen	-1285
▁koro	-1286
▁moyɛ	-1287
▁apueeɛ	-1288
kɔm	-1289
▁ayi	-1290
▁nnɔ	-1291
▁ampa	-1292
▁kane	-1293
▁hunuu	-1294
fe	-1295
nom	-1296
▁mmapɔmma	-1297
fie	-1298
gyaa	-1299
▁hann	-1300
▁aduonum	-1301
▁ahyɛdeɛ	-1302
之物	-1303
pam	-1304
▁我不	-1305
▁isa	-1306
▁以色列人	-1307
▁asɔfo	-1308
▁honam	-1309
▁biribi	-1310
sum	-1311
▁亞倫	-1312
▁atɔ	-1313
▁meka	-1314
▁asɛmpa	-1315
▁告	-1316
今日	-1317
▁ɔfa	-1318
耶和華室	-1319
nhyia	-1320
twerɛ	-1321
▁mewɔ	-1322
siesie	-1323
iel	-1324
▁因其	-1325
▁爾必	-1326
語之曰	-1327
anom	-1328
▁nnye	-1329
▁ɛnam	-1330
▁入	-1331
ɔnko	-1332
▁papa	-1333
▁aduasa	-1334
▁獻	-1335
長老	-1336
srɛ	-1337
▁ntɛm	-1338
▁owia	-1339
所言	-1340
▁以為	-1341
▁mɛyɛ	-1342
▁rekɔ	-1343
▁wɔfrɛ	-1344
▁u	-1345
▁並	-1346
▁婦	-1347
而出	-1348
與之	-1349
▁nya	-1350
▁nsɛn	-1351
▁ɔdii	-1352
▁aduan	-1353
▁akɔsi	-1354
▁ayɛyɛ	-1355
▁anuanom	-1356
▁kronkronbea	-1357
fu	-1358
異邦	-1359
hyeɛ	-1360
▁tenenee	-1361
之處	-1362
▁frɛɛ	-1363
▁nkye	-1364
wea	-1365
▁基督	-1366
瑪利亞	-1367
▁kɔe	-1368
duruu	-1369
▁baabi	-1370
之上帝耶和華	-1371
▁kyerɛw	-1372
bɔneyɛfo	-1373
以為	-1374
▁brɛɛ	-1375
▁nkɔm	-1376
利米	-1377
子女	-1378
ummi	-1379
wenn	-1380
▁dun	-1381
amfoɔ	-1382
▁dwom	-1383
▁elia	-1384
▁yona	-1385
▁dummi	-1386
▁nnyina	-1387
告爾	-1388
▁oo	-1389
▁ngu	-1390
▁tia	-1391
▁kana	-1392
▁sion	-1393
▁ɔren	-1394
▁出	-1395
▁比	-1396
為聖	-1397
▁wi	-1398
▁使之	-1399
▁wie	-1400
▁wɔnn	-1401
▁nsase	-1402
▁wɔnam	-1403
▁萬軍之耶和華	-1404
▁緣	-1405
三十	-1406
不潔	-1407
之民	-1408
ina	-1409
▁atwa	-1410
▁mframa	-1411
▁asafohene	-1412
七日	-1413
我於	-1414
智慧	-1415
利士人	-1416
▁yii	-1417
▁odiyifoɔ	-1418
亞倫	-1419
所為	-1420
約但	-1421
bɛn	-1422
kamfo	-1423
▁ɔbea	-1424
▁求	-1425
會眾	-1426
爾曹	-1427
猶太人	-1428
boam	-1429
▁ban	-1430
▁mom	-1431
▁anwu	-1432
▁kurow	-1433
▁ayɛyɛdeɛ	-1434
▁建	-1435
mia	-1436
sea	-1437
▁ntoa	-1438
▁mmɔbɔ	-1439
▁asefoɔ	-1440
▁mpanyin	-1441
▁mfirinhyia	-1442
▁sɔ	-1443
▁we	-1444
pono	-1445
twaa	-1446
▁adom	-1447
▁duru	-1448
▁tiri	-1449
▁ahenni	-1450
▁nkurɔfoɔ	-1451
▁誰	-1452
為王	-1453
anee	-1454
▁foro	-1455
kyerɛn	-1456
wennini	-1457
▁地	-1458
拿單	-1459
羅波	-1460
pae	-1461
row	-1462
▁asɛn	-1463
▁yɔnko	-1464
▁kɔbere	-1465
▁mfrafra	-1466
▁奉	-1467
之兮	-1468
▁我所	-1469
▁wodi	-1470
▁somaa	-1471
▁kanaan	-1472
▁manase	-1473
▁nsɛnkyerɛn	-1474
之一	-1475
亞比	-1476
利雅	-1477
知我	-1478
ele	-1479
▁hi	-1480
羅波安	-1481
amma	-1482
kyerɛw	-1483
▁tenaa	-1484
▁mfrafraeɛ	-1485
ga	-1486
其人	-1487
拿西	-1488
頌美	-1489
▁heb	-1490
kyiri	-1491
▁atia	-1492
▁wowɔ	-1493
gyinaa	-1494
子約	-1495
拯救	-1496
rem	-1497
▁不復	-1498
伯拉罕	-1499
hyiaa	-1500
▁ɛdan	-1501
▁mmammarima	-1502
於此	-1503
▁sum	-1504
▁aduɔ	-1505
▁ahwɛ	-1506
▁faako	-1507
▁yeremia	-1508
▁adiyifoɔ	-1509
使爾	-1510
antan	-1511
▁more	-1512
▁anwumm	-1513
▁asiria	-1514
▁mpanimfoɔ	-1515
ut	-1516
不知	-1517
buu	-1518
▁爾當	-1519
▁ɔpɛ	-1520
ki	-1521
▁後	-1522
▁日	-1523
▁歸	-1524
之時	-1525
會幕	-1526
▁hena	-1527
▁wɔdi	-1528
▁耶和華之	-1529
▁akyiwadeɛ	-1530
與我	-1531
▁如是	-1532
▁惟爾	-1533
出埃及	-1534
▁tete	-1535
▁守	-1536
曠野	-1537
摩西曰	-1538
▁wadi	-1539
▁ahyiaeɛ	-1540
▁dummienu	-1541
子以	-1542
聞之	-1543
nua	-1544
▁oh	-1545
guan	-1546
▁ɔsa	-1547
▁yoab	-1548
▁ɛsiane	-1549
五十	-1550
所羅門	-1551
▁sama	-1552
▁atitire	-1553
▁nteaseɛnam	-1554
▁視	-1555
起而	-1556
▁以利	-1557
▁yam	-1558
▁awoɔ	-1559
▁mete	-1560
▁tiaa	-1561
▁ɔbɔɔ	-1562
▁atena	-1563
▁kyɛfa	-1564
▁monkɔ	-1565
▁wɔnyɛ	-1566
▁afoforo	-1567
▁牡	-1568
所有	-1569
聽我	-1570
lead	-1571
▁所羅門	-1572
amuel	-1573
▁apem	-1574
▁ahodoɔ	-1575
▁gilead	-1576
▁monhwɛ	-1577
我主	-1578
預言	-1579
sar	-1580
▁使爾	-1581
bena	-1582
▁huu	-1583
▁謂之曰	-1584
umfoɔ	-1585
▁anya	-1586
▁samuel	-1587
▁猶	-1588
十二	-1589
▁ki	-1590
ɔhoɔ	-1591
▁sie	-1592
▁adum	-1593
▁awia	-1594
▁edom	-1595
▁nhyɛ	-1596
eneeni	-1597
▁nimdeɛ	-1598
▁同	-1599
素祭	-1600
▁afena	-1601
▁wɔkɔɔ	-1602
▁kyerɛwsɛm	-1603
族長	-1604
綿羊	-1605
▁siria	-1606
典章	-1607
食之	-1608
una	-1609
▁brɛ	-1610
▁osu	-1611
▁mmɔbo	-1612
慈惠	-1613
sam	-1614
sra	-1615
巴比倫王	-1616
▁hese	-1617
▁wɔnni	-1618
之室	-1619
其中	-1620
而來	-1621
▁因爾	-1622
▁此乃	-1623
siee	-1624
wono	-1625
yare	-1626
▁ɛfa	-1627
於以色列	-1628
▁afie	-1629
▁isak	-1630
▁wayɛ	-1631
▁nkyerɛkyerɛ	-1632
▁心	-1633
生命	-1634
西家	-1635
諸邑	-1636
duu	-1637
ema	-1638
mfi	-1639
wuo	-1640
▁la	-1641
▁tɛ	-1642
▁循其	-1643
korɛ	-1644
▁asuo	-1645
▁moan	-1646
▁wɔmm	-1647
▁nokorɛ	-1648
▁向	-1649
之為	-1650
人所	-1651
立於	-1652
mum	-1653
▁nu	-1654
isii	-1655
unta	-1656
▁bɛsi	-1657
▁bɛto	-1658
▁rebɛ	-1659
ranteɛ	-1660
▁asoma	-1661
▁awerɛ	-1662
▁memaa	-1663
▁wɔant	-1664
▁afahyɛ	-1665
▁anafoɔ	-1666
▁hesekia	-1667
▁akyirikyiri	-1668
▁nnebɔneyɛfo	-1669
▁i	-1670
▁二	-1671
▁付	-1672
有人	-1673
而不	-1674
▁約瑟	-1675
安息日	-1676
▁dea	-1677
▁ɔtɔ	-1678
而誓	-1679
bɔn	-1680
▁人子	-1681
dwiri	-1682
kyerɛɛ	-1683
▁adidi	-1684
▁atoro	-1685
▁nhoma	-1686
▁wɔyɛɛ	-1687
▁ɔhyɛɛ	-1688
▁homeda	-1689
▁anwonwa	-1690
▁ntoatoa	-1691
▁則必	-1692
▁baal	-1693
▁ɔhaw	-1694
▁anida	-1695
▁aware	-1696
nu	-1697
不復	-1698
何為	-1699
巴力	-1700
▁為我	-1701
於爾前	-1702
▁maka	-1703
▁ɛyɛɛ	-1704
▁dwane	-1705
▁wɔayɛ	-1706
▁導	-1707
▁拉	-1708
三日	-1709
者曰	-1710
聽之	-1711
▁asɛ	-1712
▁trɛ	-1713
winini	-1714
▁bonhwa	-1715
▁panyin	-1716
ot	-1717
▁尼	-1718
▁復	-1719
▁暨	-1720
基列	-1721
山羊	-1722
guu	-1723
▁使我	-1724
▁在彼	-1725
▁我以	-1726
▁nsi	-1727
▁akye	-1728
▁mese	-1729
▁nnya	-1730
▁baasa	-1731
▁sradeɛ	-1732
▁atamfoɔ	-1733
▁samaria	-1734
▁baabiara	-1735
▁生	-1736
▁遣	-1737
寅畏	-1738
殺之	-1739
▁爾若	-1740
▁而不	-1741
▁ɔda	-1742
▁ɛma	-1743
▁ahye	-1744
▁ɛpono	-1745
▁akɛseɛ	-1746
▁asaman	-1747
▁nipadua	-1748
母耳	-1749
▁蓋爾	-1750
於其前	-1751
enten	-1752
▁sorɔn	-1753
▁wɔadi	-1754
▁ɛbɛba	-1755
▁abɔfra	-1756
▁aduhwam	-1757
▁yonatan	-1758
子亞	-1759
知之	-1760
mufo	-1761
▁anyɛ	-1762
▁apon	-1763
▁mmaako	-1764
▁nkonim	-1765
▁anigyeɛ	-1766
▁yudahene	-1767
▁anwummerɛ	-1768
▁共	-1769
▁加	-1770
▁從	-1771
偶像	-1772
四十	-1773
約瑟	-1774
saa	-1775
▁無人	-1776
hwie	-1777
robɛn	-1778
▁dodo	-1779
▁yɛne	-1780
kyerɛfo	-1781
▁耶和華諭摩西曰	-1782
▁永	-1783
民之	-1784
沙龍	-1785
lon	-1786
tow	-1787
wee	-1788
risi	-1789
susu	-1790
▁akum	-1791
▁deda	-1792
▁mube	-1793
▁nsia	-1794
▁suro	-1795
▁ɛkɔm	-1796
於耶和華前	-1797
▁dɔɔso	-1798
▁panin	-1799
robɛnto	-1800
▁天	-1801
▁亞比	-1802
amfa	-1803
sene	-1804
yera	-1805
dwane	-1806
hyira	-1807
uruwa	-1808
▁ahia	-1809
▁atua	-1810
▁nkyɛ	-1811
▁soma	-1812
▁mmerɛ	-1813
▁mununkum	-1814
▁命	-1815
▁孰	-1816
▁每	-1817
福音	-1818
迦南	-1819
tuo	-1820
▁蓋彼	-1821
▁bɛdi	-1822
▁ntoatoasoɔ	-1823
之邑	-1824
以此	-1825
列王	-1826
renom	-1827
▁yero	-1828
▁ɔkye	-1829
▁wiram	-1830
▁wɔkaa	-1831
▁hwehwɛ	-1832
▁ɔsomaa	-1833
▁ahantan	-1834
▁越	-1835
gua	-1836
aawa	-1837
mmuo	-1838
witwa	-1839
▁korɔ	-1840
▁yare	-1841
▁yɛde	-1842
▁asene	-1843
▁wɔbɔɔ	-1844
▁nneyɛɛ	-1845
▁atemmuo	-1846
▁yudafoɔ	-1847
▁asomdwoe	-1848
呼曰	-1849
夫長	-1850
平康	-1851
koɔ	-1852
omm	-1853
▁ar	-1854
猶大人	-1855
twɛn	-1856
bisaa	-1857
▁munn	-1858
▁wama	-1859
▁yɛyɛ	-1860
▁ɔfaa	-1861
▁ɔhwɛ	-1862
▁ɛnne	-1863
▁awufo	-1864
▁montie	-1865
▁ɔbaako	-1866
▁aduanan	-1867
▁sorɔnso	-1868
▁amanehunu	-1869
pi	-1870
▁義	-1871
之聲	-1872
之裔	-1873
予之	-1874
啟行	-1875
我兮	-1876
▁如爾	-1877
kura	-1878
▁atu	-1879
▁pon	-1880
▁ankɔ	-1881
▁bɛkɔ	-1882
▁adane	-1883
▁bɛtena	-1884
▁akronkron	-1885
▁anwonwade	-1886
▁作	-1887
▁已	-1888
▁恐	-1889
公義	-1890
呼籲	-1891
爾於	-1892
而言	-1893
▁amo	-1894
rifoɔ	-1895
yerɛn	-1896
▁kunu	-1897
unkumm	-1898
▁nnommum	-1899
▁殺	-1900
▁言	-1901
其地	-1902
知其	-1903
ser	-1904
tew	-1905
▁ɛhe	-1906
▁midi	-1907
▁adɔeɛ	-1908
▁hyiae	-1909
▁ntena	-1910
▁ɔhunu	-1911
▁nantwie	-1912
▁nkwagye	-1913
人者	-1914
地之	-1915
如此	-1916
室家	-1917
語爾	-1918
▁彼乃	-1919
▁故我	-1920
sɛpɛ	-1921
▁aku	-1922
▁sei	-1923
以色列眾	-1924
bereɛ	-1925
rante	-1926
▁kɔka	-1927
▁ɔkɔɔ	-1928
barima	-1929
▁bɛdii	-1930
▁paano	-1931
▁ɛberɛ	-1932
▁amanamanmufo	-1933
不可	-1934
謳歌	-1935
pɛn	-1936
tɔn	-1937
yie	-1938
▁dɛ	-1939
▁ok	-1940
▁我亦	-1941
twam	-1942
▁bua	-1943
▁woan	-1944
▁ɔkwa	-1945
▁ɔnni	-1946
▁woren	-1947
▁中	-1948
▁偕	-1949
▁擊	-1950
▁長	-1951
區別	-1952
客勒	-1953
得之	-1954
迦勒	-1955
▁主歟	-1956
▁又有	-1957
▁我心	-1958
撒瑪利亞	-1959
▁ɛren	-1960
▁ahoni	-1961
▁bɛhyɛ	-1962
▁錫	-1963
以其	-1964
取之	-1965
擊之	-1966
▁不得	-1967
▁兄弟	-1968
▁又曰	-1969
enaa	-1970
▁ahi	-1971
▁hia	-1972
salom	-1973
▁komm	-1974
▁yɛre	-1975
▁蓋耶和華	-1976
▁nnome	-1977
▁wɔdii	-1978
▁paanoo	-1979
▁yeroboam	-1980
▁焚	-1981
▁聞	-1982
事之	-1983
使之	-1984
其言	-1985
▁ra	-1986
舍客勒	-1987
▁ɛba	-1988
tefoɔ	-1989
▁asie	-1990
▁hyɛn	-1991
▁nebu	-1992
▁sime	-1993
▁ɛdɔm	-1994
▁耶路撒冷	-1995
yansafoɔ	-1996
▁absalom	-1997
▁yerenom	-1998
▁mmusuakuo	-1999
▁利	-2000
坐於	-2001
ete	-2002
fat	-2003
hui	-2004
sɛɛ	-2005
▁fɔ	-2006
▁爾乃	-2007
約書亞	-2008
bubu	-2009
rika	-2010
▁ntɔ	-2011
▁ɔto	-2012
▁mowɔ	-2013
▁nhye	-2014
▁ɔhyɛ	-2015
▁ɛbaa	-2016
▁gyata	-2017
▁拿	-2018
▁較	-2019
之名	-2020
亞蘭	-2021
所行	-2022
族之	-2023
死者	-2024
滅之	-2025
荒蕪	-2026
kuro	-2027
▁afu	-2028
▁ɛka	-2029
▁nhwɛ	-2030
▁sare	-2031
▁twam	-2032
▁wɔbɔ	-2033
▁ɛnsɛ	-2034
▁monka	-2035
▁woayɛ	-2036
▁主耶和華曰	-2037
▁abufuw	-2038
▁asomfo	-2039
▁nananom	-2040
▁akronkronneɛ	-2041
之祭	-2042
亞述	-2043
以利	-2044
在此	-2045
者乎	-2046
▁惟彼	-2047
於爾中	-2048
▁ntwe	-2049
▁nyaa	-2050
▁ɛnnɛ	-2051
▁dadeɛ	-2052
▁elisa	-2053
▁ɔbɛma	-2054
▁afiase	-2055
▁雖	-2056
律例	-2057
kuw	-2058
pan	-2059
▁其上	-2060
以法蓮	-2061
elek	-2062
enya	-2063
▁boɔ	-2064
▁ahon	-2065
▁mepɛ	-2066
▁ogye	-2067
hiahia	-2068
▁abɔfo	-2069
▁ɔfasuo	-2070
lia	-2071
耶利米	-2072
nkwa	-2073
pren	-2074
▁ahwe	-2075
▁mika	-2076
▁mmua	-2077
▁wɔpɛ	-2078
▁ɔtoo	-2079
▁dedaw	-2080
▁bɛfiri	-2081
▁mpaebɔ	-2082
▁agyenkwa	-2083
▁atemmudeɛ	-2084
▁遵	-2085
以東	-2086
勇士	-2087
喜樂	-2088
我為	-2089
死亡	-2090
金銀	-2091
▁我主	-2092
於其中	-2093
kyin	-2094
▁eli	-2095
非利士人	-2096
▁dabi	-2097
▁awiei	-2098
▁nkoto	-2099
▁wonni	-2100
▁mereka	-2101
▁耶和華言之矣	-2102
▁abɔnefoɔ	-2103
▁押	-2104
唎㘔	-2105
don	-2106
▁es	-2107
𠵽唎㘔	-2108
▁wɔm	-2109
▁約書亞	-2110
▁mman	-2111
▁wone	-2112
▁wɔmaa	-2113
▁ɔbɛyɛ	-2114
▁ɔsɔfo	-2115
▁nnomaa	-2116
▁adiyifo	-2117
▁三	-2118
▁伊	-2119
▁汝	-2120
全地	-2121
少者	-2122
崇拜	-2123
爾為	-2124
聖靈	-2125
誡命	-2126
軍旅	-2127
▁門徒	-2128
boaa	-2129
difo	-2130
▁obu	-2131
▁ɛwo	-2132
▁ntoto	-2133
▁siane	-2134
▁ɔbɔfo	-2135
▁mmɔborɔ	-2136
▁asamando	-2137
▁abufuhyeɛ	-2138
▁來	-2139
▁多	-2140
其名	-2141
王之	-2142
見其	-2143
hom	-2144
sai	-2145
ɔnn	-2146
▁尚其	-2147
kora	-2148
▁ɔmm	-2149
▁ɔpa	-2150
tofoɔ	-2151
▁daeɛ	-2152
▁mmɛn	-2153
▁asraa	-2154
▁mprem	-2155
▁awieeɛ	-2156
▁yehosa	-2157
▁ahosɛpɛ	-2158
▁mmirika	-2159
▁ɔbɔnefoɔ	-2160
▁mprempren	-2161
▁傾	-2162
▁被	-2163
干罪	-2164
悖逆	-2165
摩利	-2166
相對	-2167
米勒	-2168
而得	-2169
脫於	-2170
臣僕	-2171
邑門	-2172
hem	-2173
trɛ	-2174
▁ot	-2175
▁爾則	-2176
▁視哉	-2177
▁amm	-2178
▁bem	-2179
▁gad	-2180
▁kal	-2181
▁oyi	-2182
▁pin	-2183
▁ɛha	-2184
▁ahab	-2185
▁twaa	-2186
▁ɔwoo	-2187
▁nkata	-2188
▁atadeɛ	-2189
kyekyere	-2190
dɛ	-2191
▁僕	-2192
▁烏	-2193
▁雅	-2194
在爾	-2195
於天	-2196
軍長	-2197
▁厥後	-2198
▁彼得	-2199
以利亞	-2200
duro	-2201
wuwu	-2202
▁esa	-2203
▁nsɔ	-2204
▁ɔbu	-2205
▁susu	-2206
▁wɔse	-2207
▁以色列族	-2208
▁dwuma	-2209
▁nnwetɛ	-2210
▁adanseɛ	-2211
▁afɔrebɔ	-2212
▁nhunumu	-2213
之罪	-2214
之道	-2215
惡者	-2216
沙法	-2217
爾名	-2218
▁我已	-2219
以色列王	-2220
koraa	-2221
▁ayam	-2222
▁wofi	-2223
▁yɛwɔ	-2224
▁ɔnyɛ	-2225
▁ɔseɛ	-2226
imelek	-2227
▁abien	-2228
▁ahuhu	-2229
▁atɔeɛ	-2230
▁wɔaka	-2231
▁afasuo	-2232
▁nnansa	-2233
▁trenee	-2234
▁amonfoɔ	-2235
▁nnanson	-2236
hɔ	-2237
▁明	-2238
主之	-2239
何耶	-2240
如何	-2241
成為	-2242
所命	-2243
貨財	-2244
ela	-2245
rae	-2246
▁om	-2247
▁彼將	-2248
▁爾將	-2249
▁置於	-2250
▁frɛ	-2251
▁tuu	-2252
annwa	-2253
▁esau	-2254
▁seba	-2255
▁kalde	-2256
▁minim	-2257
▁monni	-2258
▁wɔkan	-2259
▁asekyerɛ	-2260
▁mmeranteɛ	-2261
▁nnwetɛbena	-2262
▁吾	-2263
▁毀	-2264
▁食	-2265
之命	-2266
亞哈	-2267
希伯	-2268
復起	-2269
西亞	-2270
酬恩	-2271
ame	-2272
dne	-2273
wii	-2274
▁不能	-2275
dnes	-2276
funu	-2277
▁edi	-2278
▁nin	-2279
亞伯拉罕	-2280
onsam	-2281
▁bɛbɔ	-2282
▁wɔtu	-2283
kadnes	-2284
▁bepɔw	-2285
▁mesrɛ	-2286
▁yehoia	-2287
▁abannwa	-2288
kadnessar	-2289
▁nebukadnessar	-2290
▁離	-2291
之眾	-2292
偕爾	-2293
無所	-2294
爾僕	-2295
約翰	-2296
行此	-2297
tam	-2298
toɔ	-2299
▁is	-2300
▁埃及	-2301
▁惟我	-2302
猶大王	-2303
sisi	-2304
▁eye	-2305
aadaa	-2306
dɔɔso	-2307
yinom	-2308
▁anni	-2309
▁moka	-2310
▁ɔkae	-2311
▁ɔten	-2312
fohene	-2313
▁ahoho	-2314
▁akane	-2315
▁aniwa	-2316
▁mahyɛ	-2317
▁abakan	-2318
▁eyinom	-2319
▁ɔteneneeni	-2320
▁伯	-2321
▁名	-2322
▁維	-2323
▁論	-2324
其父	-2325
爾以	-2326
牛羊	-2327
而至	-2328
諸事	-2329
wira	-2330
▁rub	-2331
▁ɔnn	-2332
▁ɔsɛ	-2333
▁abɛn	-2334
▁esum	-2335
▁mmrɛ	-2336
▁kakra	-2337
▁kerub	-2338
▁mpata	-2339
▁ruben	-2340
▁wɔbaa	-2341
▁wɔfaa	-2342
▁wɔnkɔ	-2343
▁ahonya	-2344
▁twetia	-2345
▁ɔhɔhoɔ	-2346
▁aduɔson	-2347
▁rentumi	-2348
▁ɔbonsam	-2349
▁nsɛnkyerɛnneɛ	-2350
使我	-2351
列國	-2352
尼撒	-2353
惡人	-2354
fta	-2355
yim	-2356
祭司長	-2357
fira	-2358
mmea	-2359
▁kosi	-2360
▁ntama	-2361
▁abɔfoɔ	-2362
▁amamfo	-2363
▁nnompe	-2364
▁上	-2365
▁愛	-2366
▁父	-2367
之血	-2368
右手	-2369
於諸	-2370
永存	-2371
肉體	-2372
遣人	-2373
dia	-2374
▁fu	-2375
▁法老	-2376
▁無論	-2377
▁願爾	-2378
▁nnu	-2379
▁sɛɛ	-2380
▁ason	-2381
▁nteɛ	-2382
▁woka	-2383
▁yehu	-2384
▁dodow	-2385
▁nnɔba	-2386
▁tirim	-2387
▁ntaban	-2388
▁asomafo	-2389
▁mfunumu	-2390
▁手	-2391
▁第	-2392
▁能	-2393
對曰	-2394
布甲	-2395
斯民	-2396
真理	-2397
行於	-2398
遺民	-2399
iɛsa	-2400
▁以法蓮	-2401
布甲尼撒	-2402
raman	-2403
▁ayuo	-2404
▁bisa	-2405
▁ebia	-2406
▁gali	-2407
▁mprɛ	-2408
▁ɛwom	-2409
risifo	-2410
▁nguan	-2411
▁abiɛsa	-2412
▁wɔbɛka	-2413
▁farisifo	-2414
▁計	-2415
▁隨	-2416
世之	-2417
律法	-2418
我以	-2419
流便	-2420
而歸	-2421
鄉里	-2422
▁亞哈	-2423
▁今日	-2424
▁mfe	-2425
▁tim	-2426
▁人子歟	-2427
danee	-2428
yimfo	-2429
yiraa	-2430
▁kora	-2431
▁amena	-2432
▁wɔato	-2433
▁wɔsom	-2434
▁kuruwa	-2435
▁mommma	-2436
▁nnwuma	-2437
▁ɛkyerɛ	-2438
▁afunumu	-2439
▁mpanyimfo	-2440
▁受	-2441
取其	-2442
崇邱	-2443
族祖	-2444
hat	-2445
tin	-2446
▁俾爾	-2447
▁彼之	-2448
▁爾何	-2449
於我前	-2450
葡萄園	-2451
didi	-2452
ammɔn	-2453
▁ɔyii	-2454
▁耶和華必	-2455
▁ahanu	-2456
▁ahome	-2457
▁menyɛ	-2458
▁wonim	-2459
▁adagya	-2460
▁asadeɛ	-2461
▁耶和華諭我曰	-2462
▁wɔhunuu	-2463
▁nantwinini	-2464
▁恆	-2465
▁終	-2466
人也	-2467
禮物	-2468
bua	-2469
▁我若	-2470
ante	-2471
sare	-2472
wini	-2473
▁ɛde	-2474
aaboɔ	-2475
hyɛne	-2476
▁ahin	-2477
▁asɛe	-2478
rɔmmea	-2479
▁maria	-2480
▁moren	-2481
▁nyame	-2482
▁nkuraa	-2483
▁anammɔn	-2484
▁yehosafat	-2485
▁賜	-2486
▁轉	-2487
七十	-2488
信之	-2489
其子	-2490
受割	-2491
尊榮	-2492
數人	-2493
榮光	-2494
無人	-2495
稱謝	-2496
鋒刃	-2497
tom	-2498
▁以爾	-2499
▁爾不	-2500
dwoo	-2501
▁api	-2502
▁apo	-2503
▁nwu	-2504
▁便雅憫	-2505
▁bete	-2506
▁kanea	-2507
▁耶穌謂之曰	-2508
▁mpoano	-2509
▁nwɔtwe	-2510
▁asraafo	-2511
▁ahohiahia	-2512
▁asiriahene	-2513
▁sorɔnsorɔmmea	-2514
▁他	-2515
▁書	-2516
之女	-2517
彼得	-2518
我民	-2519
殿宇	-2520
民眾	-2521
者必	-2522
kem	-2523
kɔn	-2524
lek	-2525
▁先知	-2526
▁awɛ	-2527
▁esi	-2528
▁wui	-2529
▁dwoo	-2530
▁kura	-2531
▁kɔeɛ	-2532
▁mekaa	-2533
▁odwan	-2534
▁sɔree	-2535
▁ɔrekɔ	-2536
▁asaawa	-2537
▁daniel	-2538
▁hebron	-2539
▁wɔrekɔ	-2540
▁ahwɛfoɔ	-2541
▁anidaso	-2542
▁kaldeafoɔ	-2543
其上	-2544
得救	-2545
震怒	-2546
ana	-2547
▁不可	-2548
▁亦必	-2549
▁保羅	-2550
▁我誠	-2551
上帝室	-2552
分之一	-2553
onto	-2554
tiri	-2555
▁其上為	-2556
▁mote	-2557
▁betel	-2558
▁kamfo	-2559
▁wɔwoo	-2560
hommɔne	-2561
▁mmusuo	-2562
▁adidibea	-2563
▁wɔatwerɛ	-2564
kyerɛkyerɛ	-2565
▁執	-2566
▁敵	-2567
世人	-2568
之神	-2569
告我	-2570
如左	-2571
弗他	-2572
從者	-2573
於人	-2574
doo	-2575
mas	-2576
sun	-2577
▁nsɛ	-2578
▁wuo	-2579
▁撒母耳	-2580
耶和華曰	-2581
▁adie	-2582
▁elea	-2583
▁koko	-2584
twitwa	-2585
▁bɔfoɔ	-2586
▁fitaa	-2587
▁simon	-2588
▁woama	-2589
▁wɔmma	-2590
▁廣	-2591
所載	-2592
有一	-2593
牲畜	-2594
特利	-2595
禍哉	-2596
nwa	-2597
umɔ	-2598
▁亞希	-2599
▁使其	-2600
▁俾我	-2601
▁因我	-2602
▁為爾	-2603
於埃及	-2604
酬恩祭	-2605
keka	-2606
kraa	-2607
▁gyaa	-2608
▁kumm	-2609
▁mpia	-2610
▁ɔsɔre	-2611
▁ɔyɛeɛ	-2612
▁ahohora	-2613
▁四	-2614
▁待	-2615
▁盡	-2616
不義	-2617
俘囚	-2618
利利	-2619
十字	-2620
可憎	-2621
攻之	-2622
瑪利	-2623
者為	-2624
reɛ	-2625
▁建營	-2626
十字架	-2627
▁ebe	-2628
▁ehu	-2629
▁fɛw	-2630
dwene	-2631
▁kete	-2632
▁mmea	-2633
▁poma	-2634
▁ahwie	-2635
▁korɔn	-2636
▁munim	-2637
▁ntumi	-2638
▁akatua	-2639
▁benkum	-2640
▁merebɛ	-2641
▁mmasoɔ	-2642
entensoɔ	-2643
▁odiyifo	-2644
▁odwennini	-2645
▁ntentensoɔ	-2646
▁十	-2647
以理	-2648
使徒	-2649
我父	-2650
故土	-2651
獲罪	-2652
生子	-2653
若是	-2654
逾越	-2655
錫安	-2656
fam	-2657
tii	-2658
▁摩押	-2659
瑪拿西	-2660
贖罪祭	-2661
horo	-2662
▁amu	-2663
▁nwe	-2664
▁瑪拿西	-2665
乃耶和華	-2666
difoɔ	-2667
▁abrɛ	-2668
▁amra	-2669
▁enni	-2670
▁耶和華云	-2671
▁mpaeɛ	-2672
▁ɔfrɛɛ	-2673
▁atease	-2674
▁ebinom	-2675
▁mfitia	-2676
▁galilea	-2677
▁amorifoɔ	-2678
▁dwoodwoo	-2679
▁nnyinasoɔ	-2680
▁女	-2681
▁強	-2682
▁集	-2683
何以	-2684
入於	-2685
士師	-2686
尼雅	-2687
戰慄	-2688
於王	-2689
施恩	-2690
有所	-2691
爾言	-2692
生者	-2693
百人	-2694
而死	-2695
遣之	-2696
ɛpɛ	-2697
▁二人	-2698
▁以撒	-2699
▁我指	-2700
▁有人	-2701
▁yen	-2702
𠵽唎㘔人	-2703
kyire	-2704
kɔbea	-2705
romma	-2706
▁mfom	-2707
▁nnim	-2708
▁循其室家	-2709
▁amumɔ	-2710
▁kurom	-2711
▁mommɔ	-2712
▁nsuro	-2713
▁sisii	-2714
▁wɔayi	-2715
▁wɔtwe	-2716
▁ahorow	-2717
▁otumfoɔ	-2718
▁nsoromma	-2719
▁令	-2720
▁問	-2721
之首	-2722
利巴	-2723
告之	-2724
將至	-2725
就之	-2726
左右	-2727
此事	-2728
立之	-2729
sɔn	-2730
pene	-2731
▁dum	-2732
▁上帝歟	-2733
▁利未人	-2734
以色列家	-2735
benya	-2736
mammɔ	-2737
mfini	-2738
▁mayi	-2739
▁turo	-2740
▁ɔtwe	-2741
hwɛfoɔ	-2742
▁dɔteɛ	-2743
▁fasuo	-2744
▁wɔhyɛ	-2745
▁afenaa	-2746
▁akyɛde	-2747
▁amrado	-2748
▁nnamfo	-2749
▁wɔatwa	-2750
▁wɔtete	-2751
▁爾上帝耶和華	-2752
▁mfimfini	-2753
▁misraimfoɔ	-2754
er	-2755
▁用	-2756
之間	-2757
他神	-2758
保障	-2759
多人	-2760
安在	-2761
宗族	-2762
我命	-2763
王曰	-2764
目睹	-2765
路伯	-2766
阿施	-2767
▁亦不	-2768
▁ebi	-2769
▁ose	-2770
以色列之	-2771
▁waka	-2772
yinsɛn	-2773
▁nkɔsi	-2774
▁somfo	-2775
▁ɔyare	-2776
▁在耶路撒冷	-2777
▁amfiri	-2778
▁wɔbɛyɛ	-2779
▁mehunuu	-2780
▁mpanimfie	-2781
▁阿	-2782
▁首	-2783
偕之	-2784
子耶	-2785
從之	-2786
愈於	-2787
為業	-2788
獻之	-2789
知爾	-2790
香柏	-2791
▁有一	-2792
加利利	-2793
wiee	-2794
▁haw	-2795
▁sam	-2796
▁以利亞	-2797
sifoɔ	-2798
▁afuo	-2799
▁hero	-2800
▁serɛ	-2801
▁wote	-2802
▁wɔto	-2803
▁nnwom	-2804
▁sekem	-2805
▁eleasa	-2806
▁ɔbotan	-2807
▁makyerɛ	-2808
▁七	-2809
▁衣	-2810
▁迄	-2811
亦然	-2812
即位	-2813
尼珥	-2814
役事	-2815
挪亞	-2816
生之	-2817
自天	-2818
陰府	-2819
how	-2820
▁乃為	-2821
▁則曰	-2822
▁彼則	-2823
▁為之	-2824
▁爾以	-2825
isie	-2826
ronn	-2827
▁bar	-2828
▁sun	-2829
▁yea	-2830
annya	-2831
▁aten	-2832
▁hwɛɛ	-2833
▁reho	-2834
▁rema	-2835
▁wɔfa	-2836
▁ɔmma	-2837
尼布甲尼撒	-2838
hyehyɛ	-2839
▁yadeɛ	-2840
▁akofoɔ	-2841
▁asubɔn	-2842
▁kɛseyɛ	-2843
▁mahunu	-2844
▁ahengua	-2845
▁animtia	-2846
▁mmarato	-2847
▁abimelek	-2848
▁akoradeɛ	-2849
▁adwennini	-2850
子之	-2851
我名	-2852
攜之	-2853
會堂	-2854
未嘗	-2855
生存	-2856
知識	-2857
sen	-2858
ter	-2859
▁俾其	-2860
▁爾既	-2861
▁爾為	-2862
上帝所	-2863
lato	-2864
leam	-2865
▁nom	-2866
▁nyi	-2867
▁wun	-2868
▁兄弟乎	-2869
▁牡綿羊	-2870
▁猶大王	-2871
耶和華前	-2872
▁adɔe	-2873
▁ahum	-2874
▁dane	-2875
▁dumi	-2876
▁hada	-2877
▁saka	-2878
▁sede	-2879
▁sisi	-2880
▁wopɛ	-2881
▁wɔba	-2882
▁bɛkaa	-2883
▁mpema	-2884
▁mprɛn	-2885
▁kakraa	-2886
▁midian	-2887
▁pilato	-2888
▁ɔhunuu	-2889
▁年	-2890
中有	-2891
之中	-2892
亞捫	-2893
困苦	-2894
應曰	-2895
方伯	-2896
於壇	-2897
禁食	-2898
而往	-2899
興起	-2900
誠實	-2901
bue	-2902
ton	-2903
▁在於	-2904
▁王曰	-2905
dome	-2906
▁noa	-2907
▁希西家	-2908
▁kaeɛ	-2909
▁makɔ	-2910
▁onni	-2911
▁wɔam	-2912
▁leban	-2913
▁memfa	-2914
▁menkɔ	-2915
▁ahanum	-2916
▁wɔahyɛ	-2917
▁ɔtenaa	-2918
weneduro	-2919
▁曾	-2920
▁詣	-2921
▁試	-2922
一百	-2923
不聽	-2924
不見	-2925
之父	-2926
六十	-2927
士子	-2928
患難	-2929
言此	-2930
bia	-2931
guo	-2932
kim	-2933
rɔm	-2934
▁我在	-2935
▁我曾	-2936
▁爾亦	-2937
bobɔ	-2938
saia	-2939
▁hes	-2940
▁prɛ	-2941
▁sua	-2942
▁wam	-2943
耶和華命	-2944
antie	-2945
uosia	-2946
▁wayi	-2947
▁ɛteɛ	-2948
▁ahunu	-2949
▁damas	-2950
▁meyɛɛ	-2951
▁nsusu	-2952
▁yɛnkɔ	-2953
▁ɔbɛka	-2954
▁akodeɛ	-2955
▁anisoa	-2956
▁bileam	-2957
▁dumien	-2958
▁mmerɛw	-2959
▁ntonto	-2960
▁onyame	-2961
▁ɔkyena	-2962
▁nnɔbaeɛ	-2963
▁nsɛnkyerɛnne	-2964
▁沙	-2965
▁百	-2966
▁邑	-2967
之上	-2968
其罪	-2969
可惡	-2970
居於	-2971
歸於	-2972
民中	-2973
西雅	-2974
遣我	-2975
buo	-2976
dwa	-2977
has	-2978
nen	-2979
▁亞撒	-2980
▁今我	-2981
▁故爾	-2982
上帝歟	-2983
希西家	-2984
迦勒底	-2985
tutu	-2986
▁ogu	-2987
▁see	-2988
rekyi	-2989
▁abia	-2990
▁kɔkɔ	-2991
▁wube	-2992
▁yɛeɛ	-2993
▁ahene	-2994
▁ahuri	-2995
▁dwiri	-2996
▁aboson	-2997
▁asotwe	-2998
▁mmorɔn	-2999
▁damasko	-3000
▁kunkumm	-3001
▁lebanon	-3002
▁nkontom	-3003
▁israelfo	-3004
▁anyansafoɔ	-3005
▁任	-3006
▁海	-3007
▁適	-3008
▁金	-3009
▁高	-3010
上之	-3011
之家	-3012
以斯	-3013
偕往	-3014
其餘	-3015
受之	-3016
在天	-3017
在彼	-3018
幽暗	-3019
有二	-3020
火祭	-3021
為己	-3022
異象	-3023
視為	-3024
ner	-3025
tio	-3026
▁求爾	-3027
▁與爾	-3028
▁蓋其	-3029
▁tow	-3030
▁tua	-3031
▁是日也	-3032
▁mate	-3033
▁ntwa	-3034
▁reyɛ	-3035
▁yeri	-3036
▁非利士人	-3037
▁abner	-3038
▁atorɔ	-3039
▁bɔhyɛ	-3040
reneefo	-3041
▁bɛsane	-3042
▁nwonwa	-3043
▁aduosia	-3044
▁ahansia	-3045
▁sakaria	-3046
▁siriafoɔ	-3047
▁atreneefo	-3048
▁kanaanfoɔ	-3049
▁nkontompo	-3050
▁予	-3051
▁安	-3052
▁按	-3053
之僕	-3054
原文	-3055
大利	-3056
方言	-3057
精金	-3058
dab	-3059
obo	-3060
tim	-3061
▁亦有	-3062
▁爾中	-3063
爸拉罕	-3064
諭摩西	-3065
mpɔn	-3066
tini	-3067
▁apɛ	-3068
▁nwi	-3069
▁sra	-3070
▁sɛe	-3071
furae	-3072
tadeɛ	-3073
▁adam	-3074
▁adwo	-3075
▁amfa	-3076
▁medi	-3077
▁onim	-3078
▁sara	-3079
▁yɛka	-3080
▁ɔboɔ	-3081
▁abusu	-3082
▁atade	-3083
▁mehwɛ	-3084
▁metee	-3085
▁nwera	-3086
▁woaka	-3087
▁ɛhyeɛ	-3088
▁ɛtene	-3089
furaefo	-3090
kyerɛma	-3091
▁ababaa	-3092
▁kerubim	-3093
▁ponkɛseɛ	-3094
▁tɛkyerɛma	-3095
ob	-3096
rm	-3097
▁去	-3098
▁正	-3099
▁絕	-3100
▁起	-3101
▁遇	-3102
▁銀	-3103
二千	-3104
偕我	-3105
其前	-3106
利哥	-3107
就爾	-3108
底家	-3109
於山	-3110
服役	-3111
橄欖	-3112
獻祭	-3113
稱為	-3114
立約	-3115
節期	-3116
約押	-3117
而去	-3118
舉手	-3119
fee	-3120
kai	-3121
owa	-3122
sow	-3123
▁以致	-3124
▁為其	-3125
▁禍哉	-3126
上帝也	-3127
gyaw	-3128
rane	-3129
tinn	-3130
▁pam	-3131
▁sub	-3132
▁ahoɔ	-3133
▁nufo	-3134
▁wɔma	-3135
▁akɛse	-3136
▁nokwa	-3137
▁ntwea	-3138
▁woadi	-3139
▁abupɛn	-3140
▁dennen	-3141
▁nuabaa	-3142
▁asetena	-3143
▁pintinn	-3144
▁sedekia	-3145
▁wɔahunu	-3146
▁宣	-3147
▁屬	-3148
全能	-3149
吹角	-3150
姊妹	-3151
故也	-3152
於主	-3153
爾手	-3154
牡犢	-3155
畢生	-3156
諸王	-3157
逐之	-3158
res	-3159
▁go	-3160
▁ɛm	-3161
伯特利	-3162
支派中	-3163
於斯土	-3164
bire	-3165
oboo	-3166
▁dom	-3167
▁mem	-3168
▁建營於	-3169
korɔn	-3170
uturo	-3171
▁okum	-3172
▁osuo	-3173
▁toto	-3174
▁woma	-3175
▁ɔsan	-3176
▁ɔsii	-3177
▁亞伯拉罕	-3178
▁以色列王	-3179
▁願耶和華	-3180
耶和華所惡	-3181
winneɛ	-3182
▁danee	-3183
▁duruu	-3184
▁meyii	-3185
▁petee	-3186
▁ɔsane	-3187
▁我乃耶和華	-3188
知我乃耶和華	-3189
▁herode	-3190
▁mehyɛɛ	-3191
▁wɔsiee	-3192
▁yeriko	-3193
▁ɔbɔfoɔ	-3194
▁abooboo	-3195
▁ahwiesa	-3196
▁kɔtenaa	-3197
▁nnwanten	-3198
▁nnɔmmarima	-3199
▁akyerɛkyerɛfo	-3200
▁子	-3201
不信	-3202
之國	-3203
之婦	-3204
亞撒	-3205
傾覆	-3206
我王	-3207
斯巴	-3208
智者	-3209
矜恤	-3210
義人	-3211
而已	-3212
花果	-3213
若何	-3214
▁lo	-3215
▁彼眾	-3216
其所行	-3217
應之曰	-3218
roma	-3219
sesa	-3220
▁apa	-3221
▁dam	-3222
▁abra	-3223
▁guan	-3224
▁nyan	-3225
▁pini	-3226
▁sebu	-3227
▁wiei	-3228
▁ɔhye	-3229
▁akasa	-3230
▁akyin	-3231
▁esiam	-3232
▁kwaeɛ	-3233
▁mfaso	-3234
▁prɛko	-3235
▁wɔama	-3236
▁ɔkasa	-3237
▁atwene	-3238
▁denden	-3239
▁monnyɛ	-3240
▁yesaia	-3241
▁gyidifo	-3242
▁nnaadaa	-3243
▁awerɛhow	-3244
▁teaseɛnam	-3245
▁先	-3246
▁重	-3247
▁飲	-3248
予爾	-3249
伸手	-3250
其家	-3251
嗣位	-3252
拉多	-3253
於眾	-3254
棄之	-3255
歲之	-3256
法律	-3257
為大	-3258
福矣	-3259
遣使	-3260
馬色	-3261
sin	-3262
▁亞瑪	-3263
▁必以	-3264
▁約押	-3265
▁與之	-3266
boro	-3267
kunu	-3268
sani	-3269
sono	-3270
▁tem	-3271
banin	-3272
▁asan	-3273
▁buae	-3274
▁bɛda	-3275
▁hiob	-3276
▁meda	-3277
▁nkaa	-3278
▁owuo	-3279
▁yoma	-3280
▁ɔkra	-3281
▁ɔtee	-3282
▁abram	-3283
▁basan	-3284
▁kɔkɔɔ	-3285
▁moayɛ	-3286
▁wɔtee	-3287
▁ɛbɛma	-3288
▁ahyira	-3289
▁asodie	-3290
▁merema	-3291
▁kɔduruu	-3292
▁mfuturo	-3293
▁ahodwiri	-3294
▁subonhwa	-3295
▁asubɔnten	-3296
▁分	-3297
▁夜	-3298
▁愚	-3299
▁次	-3300
▁波	-3301
▁爰	-3302
▁聽	-3303
▁足	-3304
之主	-3305
二萬	-3306
夙興	-3307
大聲	-3308
導我	-3309
底改	-3310
我也	-3311
拉巴	-3312
父母	-3313
罪人	-3314
葬於	-3315
駭異	-3316
dea	-3317
kon	-3318
rot	-3319
yɛe	-3320
▁ao	-3321
▁ɔp	-3322
何耶大	-3323
於其手	-3324
末底改	-3325
basa	-3326
tɔeɛ	-3327
ɔden	-3328
ɔnnɔ	-3329
▁die	-3330
▁ham	-3331
▁hui	-3332
▁mis	-3333
▁mor	-3334
▁oni	-3335
▁oti	-3336
annaa	-3337
▁amen	-3338
▁kata	-3339
▁wɔso	-3340
▁ɔgye	-3341
頌美耶和華	-3342
kunkum	-3343
▁abura	-3344
▁aburo	-3345
▁fapem	-3346
▁ntwam	-3347
▁wɔabɔ	-3348
▁wɔkum	-3349
▁abofra	-3350
▁simeon	-3351
▁asɛnnua	-3352
▁ɔkwasea	-3353
▁kɔkyeree	-3354
▁nnipakuw	-3355
▁始	-3356
不識	-3357
之下	-3358
之乎	-3359
之後	-3360
仁慈	-3361
其一	-3362
其手	-3363
容我	-3364
愛之	-3365
愛者	-3366
爾心	-3367
祝嘏	-3368
聖者	-3369
被虜	-3370
雅子	-3371
饑饉	-3372
▁列邦	-3373
▁有若	-3374
▁約翰	-3375
逾越節	-3376
非利士	-3377
dwen	-3378
mael	-3379
▁hwa	-3380
▁ntu	-3381
▁pia	-3382
dekai	-3383
lehem	-3384
▁mema	-3385
▁memm	-3386
▁mopɛ	-3387
▁mɛba	-3388
▁nkum	-3389
▁nnkɔ	-3390
▁sera	-3391
於耶路撒冷	-3392
daadaa	-3393
▁adihɔ	-3394
▁hanan	-3395
▁mmere	-3396
▁nhyia	-3397
▁nkron	-3398
▁mmabaa	-3399
▁nneyɛe	-3400
▁obisaa	-3401
▁ahurisie	-3402
▁awerɛhoɔ	-3403
▁basabasa	-3404
▁betlehem	-3405
▁mordekai	-3406
▁israelhene	-3407
▁萬	-3408
▁近	-3409
之手	-3410
二百	-3411
亞瑪	-3412
他人	-3413
平原	-3414
庶民	-3415
待之	-3416
悔改	-3417
於海	-3418
綏安	-3419
錫嘏	-3420
bal	-3421
bom	-3422
bon	-3423
dok	-3424
huo	-3425
siw	-3426
▁亞捫	-3427
▁亞蘭	-3428
▁以我	-3429
▁以斯	-3430
▁四周	-3431
▁我子	-3432
▁爾勿	-3433
▁與我	-3434
▁越至	-3435
埃及人	-3436
基路伯	-3437
於猶大	-3438
sini	-3439
▁pra	-3440
▁srɛ	-3441
annye	-3442
yɛfoɔ	-3443
▁mɛka	-3444
▁reka	-3445
▁seru	-3446
▁tiro	-3447
▁anwea	-3448
▁asefo	-3449
▁kɔmaa	-3450
▁nturo	-3451
▁sadok	-3452
▁sofoɔ	-3453
▁tadua	-3454
▁abodoo	-3455
▁ahiafo	-3456
▁ketewa	-3457
▁wɔsɔre	-3458
▁ahuhudeɛ	-3459
▁ananafoɔ	-3460
▁nnipadɔm	-3461
▁nnwinneɛ	-3462
▁babelhene	-3463
▁wɔakyerɛw	-3464
▁下	-3465
▁抑	-3466
▁返	-3467
▁遍	-3468
之也	-3469
其民	-3470
其衣	-3471
其首	-3472
可畏	-3473
四境	-3474
城垣	-3475
外人	-3476
守之	-3477
愆尤	-3478
掣籤	-3479
推羅	-3480
晝夜	-3481
有之	-3482
歌頌	-3483
無有	-3484
男女	-3485
異蹟	-3486
純全	-3487
mar	-3488
▁及爾	-3489
▁惡人	-3490
上帝僕	-3491
主耶穌	-3492
實瑪利	-3493
希伯崙	-3494
hyɛn	-3495
perɛ	-3496
▁tii	-3497
▁猶大人	-3498
somaa	-3499
▁borɔ	-3500
▁kyee	-3501
▁sema	-3502
▁wobu	-3503
▁anwan	-3504
▁atiri	-3505
▁badwa	-3506
▁ester	-3507
▁mpoma	-3508
▁nhunu	-3509
▁ɔrebɛ	-3510
▁bɛdane	-3511
▁ismael	-3512
▁mommfa	-3513
▁yafunu	-3514
▁awɛmfoɔ	-3515
▁otitire	-3516
▁anisoade	-3517
▁以色列之上帝耶和華	-3518
▁倘	-3519
▁奚	-3520
▁更	-3521
▁洗	-3522
▁牛	-3523
▁目	-3524
▁經	-3525
三人	-3526
之王	-3527
五千	-3528
亞希	-3529
伊法	-3530
何時	-3531
己之	-3532
強暴	-3533
所出	-3534
撒拉	-3535
操作	-3536
於野	-3537
有其	-3538
矜憫	-3539
羣羊	-3540
群眾	-3541
者不	-3542
至此	-3543
蒙羞	-3544
賽亞	-3545
馨香	-3546
paa	-3547
▁我為	-3548
▁是為	-3549
聽我言	-3550
kari	-3551
pore	-3552
▁awe	-3553
▁yɛe	-3554
▁以利沙	-3555
▁mabɛ	-3556
▁mpɛn	-3557
▁nsan	-3558
▁were	-3559
▁ɔboa	-3560
hohoro	-3561
rannaa	-3562
▁ahasa	-3563
▁apiti	-3564
▁atwam	-3565
▁kronn	-3566
▁laban	-3567
▁mpemn	-3568
▁ohoni	-3569
▁wedeɛ	-3570
▁wotie	-3571
▁wɔabɛ	-3572
▁wɔafa	-3573
我上帝耶和華	-3574
▁ahanan	-3575
▁fiefoɔ	-3576
▁hyehyɛ	-3577
▁wɔhyɛɛ	-3578
▁wɔrebɛ	-3579
於爾上帝耶和華	-3580
▁ahemfie	-3581
▁nhyehyɛ	-3582
▁nkwasea	-3583
▁nufosuo	-3584
▁akyinnye	-3585
▁asɔfotadeɛ	-3586
▁侍	-3587
▁古	-3588
▁延	-3589
▁相	-3590
▁設	-3591
七年	-3592
付於	-3593
以金	-3594
利恆	-3595
居之	-3596
山地	-3597
教誨	-3598
無疵	-3599
賜爾	-3600
ere	-3601
fan	-3602
non	-3603
tɔɔ	-3604
uni	-3605
wui	-3606
ɛtɛ	-3607
▁中心	-3608
▁付於	-3609
▁及諸	-3610
▁坐於	-3611
▁必不	-3612
▁我豈	-3613
▁攜至	-3614
▁是時	-3615
▁有如	-3616
▁然我	-3617
▁立於	-3618
▁脫於	-3619
之祭司	-3620
亞摩利	-3621
亞述王	-3622
於爾手	-3623
異邦人	-3624
beon	-3625
iani	-3626
soro	-3627
ɛfoɔ	-3628
▁kyi	-3629
▁nen	-3630
▁sɔɔ	-3631
▁tɔɔ	-3632
▁ɔsɔ	-3633
ftali	-3634
▁mekɔ	-3635
▁mɛyi	-3636
▁nkɔn	-3637
▁onua	-3638
▁ɔnkɔ	-3639
▁ɛwoɔ	-3640
▁agyaa	-3641
▁memma	-3642
▁yosia	-3643
▁ɔsɛeɛ	-3644
▁amonom	-3645
▁betumi	-3646
▁mommra	-3647
▁ohiani	-3648
▁ɔfirii	-3649
▁以色列之上帝	-3650
▁mpaperɛ	-3651
▁naftali	-3652
▁主耶和華言之矣	-3653
▁ahosɛpɛw	-3654
▁rehoboam	-3655
▁adwamammɔ	-3656
▁ɔbabarima	-3657
▁仍	-3658
▁反	-3659
▁施	-3660
▁水	-3661
之諸	-3662
伯蘭	-3663
其心	-3664
導爾	-3665
得其	-3666
恩寵	-3667
所欲	-3668
斯列	-3669
甚多	-3670
細麵	-3671
而後	-3672
至於	-3673
頌讚	-3674
gal	-3675
▁其時	-3676
▁基列	-3677
▁成為	-3678
▁我未	-3679
▁既至	-3680
▁是以	-3681
▁無有	-3682
▁請爾	-3683
lkia	-3684
toma	-3685
▁awɔ	-3686
▁gil	-3687
▁kun	-3688
▁pea	-3689
▁pɛe	-3690
▁yes	-3691
▁ɛkɔ	-3692
▁約拿單	-3693
耶和華言	-3694
emmaa	-3695
hwɛfo	-3696
▁abaa	-3697
▁gide	-3698
▁hama	-3699
▁meba	-3700
▁mera	-3701
▁mfuo	-3702
▁nhwi	-3703
▁ɔdan	-3704
wumfoɔ	-3705
▁akorɔ	-3706
▁atene	-3707
▁haman	-3708
▁mihuu	-3709
▁wodii	-3710
▁ɔbɛdi	-3711
▁ahunta	-3712
▁gyinaa	-3713
▁hyerɛn	-3714
▁kɔnnua	-3715
▁ntwemu	-3716
▁wɔbɛfa	-3717
▁ɔtwerɛ	-3718
▁ɛkorɔn	-3719
▁moahunu	-3720
▁wɔantie	-3721
▁mmɔborɔhunu	-3722
▁暗	-3723
▁曷	-3724
▁火	-3725
▁發	-3726
▁舉	-3727
之榮	-3728
之門	-3729
參孫	-3730
及爾	-3731
哥轄	-3732
善者	-3733
因其	-3734
在我	-3735
天下	-3736
憐恤	-3737
所賜	-3738
於刃	-3739
歸之	-3740
疫癘	-3741
示爾	-3742
見我	-3743
赫人	-3744
dwe	-3745
han	-3746
kun	-3747
▁亞述	-3748
▁斯土	-3749
▁而爾	-3750
▁致爾	-3751
▁迦得	-3752
但以理	-3753
及其子	-3754
告之曰	-3755
hyee	-3756
setɔ	-3757
tane	-3758
▁afɛ	-3759
▁rah	-3760
▁yuu	-3761
亞爸拉罕	-3762
enkan	-3763
tania	-3764
▁asen	-3765
▁mɛto	-3766
▁twee	-3767
▁wɔbu	-3768
▁yebu	-3769
▁ɛnni	-3770
▁以色列家	-3771
寅畏耶和華	-3772
wammaa	-3773
▁amapa	-3774
▁hebri	-3775
▁menam	-3776
▁menim	-3777
▁nsane	-3778
▁rahel	-3779
▁wokum	-3780
▁wɔtoo	-3781
▁yenim	-3782
▁ɔbɛba	-3783
▁奉於耶和華	-3784
▁abosom	-3785
▁ahinta	-3786
▁ahyɛde	-3787
▁ahɔhoɔ	-3788
▁akodie	-3789
▁akɔnnɔ	-3790
▁atɔfoɔ	-3791
▁abosome	-3792
▁boasetɔ	-3793
▁tentene	-3794
▁kyekyeree	-3795
hi	-3796
▁供	-3797
▁口	-3798
▁召	-3799
▁小	-3800
▁投	-3801
▁提	-3802
▁稱	-3803
之水	-3804
其命	-3805
君王	-3806
建室	-3807
忿怒	-3808
成之	-3809
我乎	-3810
所造	-3811
河濱	-3812
灌祭	-3813
示之	-3814
示劍	-3815
維生	-3816
聖衣	-3817
諸族	-3818
貧乏	-3819
hon	-3820
lam	-3821
rew	-3822
see	-3823
ɛnt	-3824
▁乃以	-3825
▁我聞	-3826
▁我見	-3827
▁歷世	-3828
▁歷至	-3829
▁無不	-3830
▁爾與	-3831
押沙龍	-3832
與其郊	-3833
fire	-3834
kita	-3835
▁ayu	-3836
▁ɛto	-3837
▁蓋上帝	-3838
▁蓋我儕	-3839
teɛɛm	-3840
▁aane	-3841
▁akra	-3842
▁atim	-3843
▁bena	-3844
▁ewie	-3845
▁ware	-3846
▁yoas	-3847
▁ɔsɛe	-3848
▁我誠告爾	-3849
▁aduru	-3850
▁mekae	-3851
▁natan	-3852
▁yɛren	-3853
tenenee	-3854
▁mefiri	-3855
▁nkokoɔ	-3856
▁rekorɔ	-3857
▁hyiadan	-3858
▁merehyɛ	-3859
▁sebulon	-3860
▁anibereɛ	-3861
▁nkwagyeɛ	-3862
▁kyerɛkyerɛ	-3863
▁misraimhene	-3864
no	-3865
▁底	-3866
▁顯	-3867
一萬	-3868
三年	-3869
傾跌	-3870
其僕	-3871
十四	-3872
千人	-3873
布斯	-3874
攻我	-3875
明哲	-3876
比亞	-3877
而生	-3878
西門	-3879
視之	-3880
該撒	-3881
賓旅	-3882
kar	-3883
▁其中	-3884
▁其地	-3885
▁則當	-3886
▁我今	-3887
▁我民	-3888
▁斯人	-3889
▁明日	-3890
▁起而	-3891
▁迦勒	-3892
利巴嫩	-3893
基督之	-3894
弗他利	-3895
蒙不潔	-3896
謂我曰	-3897
dɔma	-3898
omma	-3899
utam	-3900
▁han	-3901
▁mah	-3902
▁pɛn	-3903
▁大衛曰	-3904
我主耶穌	-3905
wonoo	-3906
▁fili	-3907
▁mmma	-3908
▁woso	-3909
▁yɛan	-3910
▁巴比倫王	-3911
在耶路撒冷	-3912
rekyie	-3913
witwaa	-3914
▁abisa	-3915
▁sidon	-3916
▁wɔabu	-3917
▁wɔhwɛ	-3918
▁yisai	-3919
▁yudea	-3920
▁abrabɔ	-3921
▁adwane	-3922
▁asaria	-3923
▁mpomma	-3924
▁nkyene	-3925
▁rekasa	-3926
▁ɔkorow	-3927
▁abotire	-3928
▁ankyerɛ	-3929
▁mmorɔno	-3930
▁montena	-3931
▁akyidifo	-3932
▁ntwamutam	-3933
▁ahohommɔne	-3934
▁totorobɛnto	-3935
▁kyerɛkyerɛfo	-3936
▁伏	-3937
▁俄	-3938
▁哀	-3939
▁拯	-3940
▁觀	-3941
▁身	-3942
一千	-3943
丁男	-3944
之器	-3945
予我	-3946
人子	-3947
他連	-3948
其後	-3949
富有	-3950
慰藉	-3951
拿達	-3952
月朔	-3953
為誰	-3954
犯罪	-3955
義者	-3956
行淫	-3957
pue	-3958
sɔɔ	-3959
▁使者	-3960
▁俱為	-3961
▁俱載	-3962
▁彼不	-3963
▁我曰	-3964
▁我與	-3965
▁昔我	-3966
▁然則	-3967
他連得	-3968
大衛之	-3969
buru	-3970
huru	-3971
yini	-3972
▁ɔyi	-3973
wehwɛ	-3974
▁ahas	-3975
▁fɛfɛ	-3976
▁mabɔ	-3977
▁mpen	-3978
▁ohuu	-3979
▁srɛɛ	-3980
▁wiee	-3981
boaboa	-3982
tiatia	-3983
▁dunan	-3984
▁gibea	-3985
▁kataa	-3986
▁kwata	-3987
▁monto	-3988
▁simei	-3989
▁sodom	-3990
▁amalek	-3991
▁mmakan	-3992
▁muntie	-3993
▁wobɛyɛ	-3994
▁wɔsane	-3995
▁amanneɛ	-3996
▁kaesare	-3997
▁ntotɔeɛ	-3998
▁woahunu	-3999
▁ɔtwerɛfoɔ	-4000
▁ntotorobɛnto	-4001
▁yerusalemfoɔ	-4002
▁l	-4003
▁世	-4004
▁信	-4005
▁宰	-4006
▁屆	-4007
▁深	-4008
▁給	-4009
▁蒙	-4010
▁諭	-4011
事蹟	-4012
修葺	-4013
國之	-4014
基利	-4015
多瑪	-4016
布倫	-4017
法度	-4018
爾曰	-4019
磐石	-4020
福祉	-4021
緘默	-4022
置於	-4023
而上	-4024
而返	-4025
諸子	-4026
變為	-4027
邑中	-4028
him	-4029
▁乃由	-4030
▁人若	-4031
▁凡有	-4032
▁希伯	-4033
▁我既	-4034
▁斯民	-4035
大馬色	-4036
我上帝	-4037
為祭司	-4038
無花果	-4039
gyeɛ	-4040
koto	-4041
reel	-4042
▁ann	-4043
▁dwe	-4044
▁fuu	-4045
▁ger	-4046
▁一歲之	-4047
▁耶利米	-4048
kɔkɔɔ	-4049
sakra	-4050
wifoɔ	-4051
▁bala	-4052
▁bata	-4053
▁boaa	-4054
▁funu	-4055
▁huru	-4056
▁tiee	-4057
▁ɔkɔm	-4058
hoahoa	-4059
▁ahotɔ	-4060
▁asane	-4061
▁manya	-4062
▁nnwon	-4063
▁owura	-4064
▁pasaa	-4065
▁wɔakɔ	-4066
▁adekye	-4067
▁akumaa	-4068
▁antumi	-4069
▁bɛhunu	-4070
▁hyiraa	-4071
▁isakar	-4072
▁merekɔ	-4073
▁mfasoɔ	-4074
▁mmɔden	-4075
▁mubehu	-4076
▁nkuran	-4077
▁yakobo	-4078
▁ɔbisaa	-4079
耶和華所諭摩西	-4080
▁nhwiren	-4081
▁wɔfirii	-4082
▁yesreel	-4083
▁agyapade	-4084
▁anidasoɔ	-4085
▁safohene	-4086
▁amumɔyɛfo	-4087
▁dwetɛbena	-4088
▁五	-4089
▁六	-4090
▁治	-4091
▁流	-4092
▁莫	-4093
▁除	-4094
之心	-4095
之靈	-4096
以上	-4097
以撒	-4098
俯伏	-4099
其身	-4100
吞噬	-4101
堅城	-4102
子比	-4103
居所	-4104
心之	-4105
所見	-4106
拉利	-4107
民曰	-4108
永久	-4109
爾父	-4110
約匱	-4111
結實	-4112
若此	-4113
號咷	-4114
行惡	-4115
食其	-4116
iiɛ	-4117
tar	-4118
▁以此	-4119
▁利未	-4120
▁則可	-4121
▁我於	-4122
▁爾豈	-4123
▁見其	-4124
千夫長	-4125
撒母耳	-4126
為上帝	-4127
獻燔祭	-4128
耶利哥	-4129
duan	-4130
gyae	-4131
gyan	-4132
huro	-4133
kata	-4134
▁mpɛ	-4135
▁tew	-4136
▁爾為我	-4137
sosɛm	-4138
▁agua	-4139
▁aser	-4140
▁butu	-4141
▁mɛbɔ	-4142
▁nsie	-4143
▁pɛpɛ	-4144
▁sina	-4145
▁yɛte	-4146
▁ahyɛn	-4147
▁ewiem	-4148
▁nkasa	-4149
▁pefee	-4150
▁pinii	-4151
▁tamfo	-4152
▁woyɛɛ	-4153
▁wɔkae	-4154
▁ɔgyaa	-4155
▁ɔsoma	-4156
其上帝耶和華	-4157
▁adamfo	-4158
▁adesoa	-4159
▁atwerɛ	-4160
▁baanan	-4161
▁gibeon	-4162
▁krataa	-4163
▁mmuada	-4164
▁monkae	-4165
▁munnye	-4166
▁nantwi	-4167
▁wonnim	-4168
▁adehunu	-4169
▁afieboa	-4170
▁bɛhyiaa	-4171
▁mekyerɛ	-4172
▁ntaaboɔ	-4173
▁wɔduruu	-4174
▁aberante	-4175
▁anwanwadeɛ	-4176
▁備	-4177
▁內	-4178
▁山	-4179
之餅	-4180
剛愎	-4181
和平	-4182
尋求	-4183
導之	-4184
尼亞	-4185
崇事	-4186
弗替	-4187
所許	-4188
正直	-4189
罪戾	-4190
自由	-4191
荊棘	-4192
萬有	-4193
薩迦	-4194
行者	-4195
貧者	-4196
飲食	-4197
tra	-4198
▁li	-4199
▁勿懼	-4200
▁及凡	-4201
▁此人	-4202
▁爾僕	-4203
▁爾可	-4204
▁爾往	-4205
▁耶戶	-4206
▁豈不	-4207
列王紀	-4208
大衛曰	-4209
所得之	-4210
於我儕	-4211
者之手	-4212
fowa	-4213
▁adw	-4214
▁buu	-4215
▁mfu	-4216
▁nke	-4217
▁per	-4218
▁pɛɛ	-4219
▁sel	-4220
▁bedi	-4221
▁dinn	-4222
▁ntia	-4223
▁roma	-4224
mamfoɔ	-4225
▁akata	-4226
▁hadad	-4227
▁kiria	-4228
▁menka	-4229
▁nkane	-4230
▁nnepa	-4231
▁nwunu	-4232
▁sukɔm	-4233
▁wogye	-4234
▁yɛnam	-4235
▁amaneɛ	-4236
▁benaia	-4237
▁bɛsɔre	-4238
▁mmepɔw	-4239
▁yɛbɛyɛ	-4240
▁ɔkyerɛ	-4241
▁ahonhom	-4242
▁pɛpɛɛpɛ	-4243
▁mfitiaseɛ	-4244
▁善	-4245
▁語	-4246
之金	-4247
互相	-4248
亞他	-4249
亦不	-4250
他瑪	-4251
以謝	-4252
全家	-4253
哭泣	-4254
女歟	-4255
守我	-4256
巴蘭	-4257
我而	-4258
所獻	-4259
所產	-4260
拿雅	-4261
欣喜	-4262
歡欣	-4263
水之	-4264
生物	-4265
第宅	-4266
藐視	-4267
赦宥	-4268
震動	-4269
驚惶	-4270
bii	-4271
fuo	-4272
ire	-4273
soɛ	-4274
▁今爾	-4275
▁其次	-4276
▁原文	-4277
▁民眾	-4278
▁迄於	-4279
於其上	-4280
於我手	-4281
西底家	-4282
onoo	-4283
pasa	-4284
pata	-4285
pere	-4286
rani	-4287
▁bie	-4288
▁我為爾	-4289
以色列中	-4290
其餘事蹟	-4291
慈惠永存	-4292
耶和華名	-4293
yadeɛ	-4294
yinam	-4295
▁kyɛw	-4296
▁madi	-4297
▁mebɔ	-4298
▁nnam	-4299
▁pasa	-4300
▁rebe	-4301
▁wira	-4302
▁ɛnte	-4303
▁aforo	-4304
▁apete	-4305
▁ayare	-4306
▁binom	-4307
▁dubaa	-4308
▁dweti	-4309
▁kabii	-4310
▁kosii	-4311
▁mpena	-4312
▁sinai	-4313
▁yɛayɛ	-4314
▁ɛbere	-4315
▁ɛreba	-4316
▁ɛsono	-4317
reneeni	-4318
▁gideon	-4319
▁gilgal	-4320
▁mehunu	-4321
▁mfomso	-4322
▁nkurow	-4323
▁adwaman	-4324
▁nkyekyɛ	-4325
▁asɛmmɔne	-4326
▁hwanhwam	-4327
▁ateasefoɔ	-4328
▁ɔsafohene	-4329
▁dwetikɛseɛ	-4330
▁anantwinini	-4331
mɔ	-4332
or	-4333
▁代	-4334
▁坐	-4335
▁奪	-4336
▁引	-4337
▁戶	-4338
▁攻	-4339
▁死	-4340
▁田	-4341
▁追	-4342
▁陳	-4343
▁革	-4344
之故	-4345
五肘	-4346
人以	-4347
以掃	-4348
作為	-4349
吉甲	-4350
哈難	-4351
垂聽	-4352
奇事	-4353
奉事	-4354
建營	-4355
從我	-4356
有何	-4357
棄我	-4358
歡呼	-4359
比雅	-4360
永生	-4361
為此	-4362
目擊	-4363
米甸	-4364
繕寫	-4365
號呼	-4366
諸國	-4367
謂其	-4368
謗讟	-4369
離之	-4370
rib	-4371
▁pɔ	-4372
▁如其	-4373
▁居於	-4374
▁我自	-4375
▁牧伯	-4376
▁而彼	-4377
▁若我	-4378
▁蓋此	-4379
及其郊	-4380
牡綿羊	-4381
sɛee	-4382
wura	-4383
▁koo	-4384
▁toa	-4385
▁toɔ	-4386
▁押沙龍	-4387
可惡之事	-4388
為以色列	-4389
ammaa	-4390
nonoo	-4391
susuw	-4392
▁karm	-4393
▁mesu	-4394
▁mumm	-4395
▁okun	-4396
▁rama	-4397
▁wabɔ	-4398
▁wɔyi	-4399
buruwa	-4400
▁ayowa	-4401
▁begye	-4402
▁minni	-4403
▁munni	-4404
▁twerɛ	-4405
▁wɔate	-4406
▁yehoa	-4407
▁akomam	-4408
▁filipo	-4409
▁merari	-4410
▁mmanin	-4411
▁mmɔfra	-4412
▁momono	-4413
▁wɔtenaa	-4414
▁萬軍之耶和華曰	-4415
▁agyaadwo	-4416
▁pasapasa	-4417
▁atemmufoɔ	-4418
▁啟	-4419
▁造	-4420
▁附	-4421
之長	-4422
信者	-4423
其邑	-4424
出而	-4425
受膏	-4426
受苦	-4427
執之	-4428
大地	-4429
子示	-4430
宮室	-4431
審判	-4432
得生	-4433
所定	-4434
於敵	-4435
焚香	-4436
眷顧	-4437
眾曰	-4438
窘逐	-4439
築壇	-4440
者歟	-4441
苗裔	-4442
虛空	-4443
鄰里	-4444
門之	-4445
pia	-4446
sur	-4447
suu	-4448
▁ai	-4449
▁不以	-4450
▁且以	-4451
▁以及	-4452
▁其母	-4453
▁其餘	-4454
▁此皆	-4455
▁爰及	-4456
▁當時	-4457
其列祖	-4458
十二人	-4459
大衛城	-4460
子以利	-4461
於列邦	-4462
門徒曰	-4463
aseɛ	-4464
dada	-4465
duon	-4466
koaa	-4467
tiee	-4468
▁hoa	-4469
▁wɔk	-4470
▁wɔs	-4471
▁ɔfo	-4472
▁我必使	-4473
▁約沙法	-4474
ɔnefo	-4475
▁adwe	-4476
▁bɛyi	-4477
▁hasa	-4478
▁nnni	-4479
▁oyii	-4480
▁seir	-4481
▁uria	-4482
耶和華之言	-4483
▁akyɛm	-4484
▁aniwu	-4485
▁aseda	-4486
▁balak	-4487
▁dɔfoɔ	-4488
▁fidie	-4489
▁hyɛeɛ	-4490
▁kɔkaa	-4491
▁menni	-4492
▁monyi	-4493
▁wamma	-4494
▁wohuu	-4495
▁wɔyii	-4496
▁yɛmfa	-4497
▁yɛnyɛ	-4498
▁ɔkumm	-4499
▁dwiriw	-4500
▁nsubɔn	-4501
▁semaia	-4502
▁wohunu	-4503
▁wɔagye	-4504
▁wɔasɛe	-4505
▁wɔnnim	-4506
▁wɔnnya	-4507
▁ɔdanee	-4508
wamamfoɔ	-4509
▁ayitoma	-4510
▁bapɔmma	-4511
▁boaboaa	-4512
▁obetumi	-4513
▁在耶路撒冷為王	-4514
▁monnsuro	-4515
▁ahonyadeɛ	-4516
▁ɔtreneeni	-4517
▁kronkronni	-4518
▁onyansafoɔ	-4519
oo	-4520
▁別	-4521
▁戰	-4522
▁援	-4523
▁東	-4524
一切	-4525
不以	-4526
之區	-4527
之死	-4528
五百	-4529
付之	-4530
偕眠	-4531
其道	-4532
我僕	-4533
所遺	-4534
是也	-4535
有福	-4536
此人	-4537
示羅	-4538
而起	-4539
腓立	-4540
見爾	-4541
言者	-4542
諸長	-4543
證者	-4544
野獸	-4545
間之	-4546
雅敬	-4547
des	-4548
leb	-4549
man	-4550
set	-4551
▁og	-4552
▁不知	-4553
▁其名	-4554
▁我又	-4555
▁故當	-4556
▁昔爾	-4557
▁未嘗	-4558
▁試觀	-4559
▁謳歌	-4560
▁遂往	-4561
以利沙	-4562
問之曰	-4563
基比亞	-4564
會幕門	-4565
aama	-4566
muka	-4567
rɔni	-4568
▁ohu	-4569
▁soa	-4570
▁wim	-4571
▁ɛsɔ	-4572
▁上帝之	-4573
▁我將以	-4574
▁猶太人	-4575
duonu	-4576
frama	-4577
kyera	-4578
panin	-4579
pɔnna	-4580
▁afrɛ	-4581
▁koto	-4582
▁medɔ	-4583
▁mmfa	-4584
▁moma	-4585
▁redi	-4586
至耶路撒冷	-4587
▁apɛde	-4588
▁benya	-4589
▁bɛkyɛ	-4590
▁hamat	-4591
▁kaleb	-4592
▁mispa	-4593
▁mufoɔ	-4594
▁ntade	-4595
▁remma	-4596
▁renyɛ	-4597
▁wahyɛ	-4598
▁wɔmmɔ	-4599
▁ɔforo	-4600
▁ɔgyee	-4601
▁ɔpapo	-4602
▁主耶和華云	-4603
sotefoɔ	-4604
▁adɔɔso	-4605
▁agyata	-4606
▁ahoɔfɛ	-4607
▁metumi	-4608
▁mpanin	-4609
▁wɔbɛdi	-4610
▁wɔbɛma	-4611
▁wɔkura	-4612
▁wɔtena	-4613
▁wɔtumi	-4614
▁asoɔden	-4615
▁kɔhyiaa	-4616
▁yehoiada	-4617
耶和華所諭摩西之命	-4618
▁aberanteɛ	-4619
▁乘	-4620
▁傳	-4621
▁南	-4622
▁就	-4623
▁意	-4624
▁播	-4625
▁滅	-4626
▁祈	-4627
▁脫	-4628
▁速	-4629
亡於	-4630
偕行	-4631
四百	-4632
因爾	-4633
境內	-4634
室之	-4635
察之	-4636
實本	-4637
恐懼	-4638
惡之	-4639
所諭	-4640
既畢	-4641
會中	-4642
枲布	-4643
無辜	-4644
父家	-4645
王西	-4646
聞其	-4647
臥於	-4648
萬民	-4649
血氣	-4650
rak	-4651
rio	-4652
ros	-4653
yaw	-4654
▁不然	-4655
▁人之	-4656
▁延及	-4657
▁我父	-4658
▁此後	-4659
▁而得	-4660
▁而我	-4661
▁豈非	-4662
為燔祭	-4663
米斯巴	-4664
耶斯列	-4665
迦南人	-4666
pira	-4667
sian	-4668
teaa	-4669
▁dwo	-4670
▁efa	-4671
▁gui	-4672
▁lot	-4673
▁nhu	-4674
▁paa	-4675
▁ɔpe	-4676
▁ɛsi	-4677
▁彼拉多	-4678
▁羅波安	-4679
上帝之子	-4680
耶羅波安	-4681
hunta	-4682
kyini	-4683
susuu	-4684
unafo	-4685
▁bɛfa	-4686
▁bɛko	-4687
▁mmɔn	-4688
▁mpam	-4689
▁nhia	-4690
▁ntie	-4691
▁sɛeɛ	-4692
▁ɛmaa	-4693
▁以色列之	-4694
▁bobɔɔ	-4695
▁hyiaa	-4696
▁mehyɛ	-4697
▁suban	-4698
▁sɔfoɔ	-4699
▁wɔnte	-4700
▁amaama	-4701
▁amasia	-4702
▁bibire	-4703
▁mpaboa	-4704
▁samson	-4705
▁wɔamfa	-4706
▁ayeforo	-4707
▁monsane	-4708
▁nnuhwam	-4709
▁pradada	-4710
▁wobisaa	-4711
▁aprannaa	-4712
▁atenenee	-4713
▁ahintasɛm	-4714
▁berɛsosɛm	-4715
▁mmɔborɔni	-4716
▁yehoiakim	-4717
▁gyinagyina	-4718
▁apɔnkɔsotefoɔ	-4719
ge	-4720
▁寧	-4721
▁擲	-4722
▁果	-4723
▁素	-4724
▁誠	-4725
人曰	-4726
勒家	-4727
哀哭	-4728
府庫	-4729
循其	-4730
烈怒	-4731
無知	-4732
王宮	-4733
答曰	-4734
者亦	-4735
自謂	-4736
西拉	-4737
西珥	-4738
見殺	-4739
言曰	-4740
遇之	-4741
雕像	-4742
fun	-4743
▁以上	-4744
▁區別	-4745
▁取其	-4746
▁彼曰	-4747
▁我目	-4748
▁或告	-4749
▁比利	-4750
▁無一	-4751
▁爾宜	-4752
▁義者	-4753
▁葬於	-4754
▁非由	-4755
▁願其	-4756
doma	-4757
kwaa	-4758
torɔ	-4759
wisi	-4760
yiri	-4761
▁asɔ	-4762
▁bue	-4763
▁gat	-4764
▁ita	-4765
▁ram	-4766
▁yaw	-4767
列祖偕眠	-4768
huhuo	-4769
mmɔne	-4770
rɔkye	-4771
waree	-4772
▁atwe	-4773
▁beer	-4774
▁etio	-4775
▁homa	-4776
▁ntew	-4777
▁omun	-4778
▁以色列眾	-4779
▁awofo	-4780
▁bɛhwɛ	-4781
▁kasae	-4782
▁obedi	-4783
▁renka	-4784
▁wanya	-4785
▁womaa	-4786
▁wonam	-4787
▁wunim	-4788
▁ayeyie	-4789
▁baason	-4790
▁mekasa	-4791
▁nkanea	-4792
▁nsɛsoɔ	-4793
▁wofiri	-4794
▁wɔagya	-4795
▁ahanson	-4796
▁fononoo	-4797
▁nnebɔne	-4798
▁asorɔkye	-4799
▁borɔdɔma	-4800
▁nnwankuo	-4801
▁ntotosoɔ	-4802
▁oguammaa	-4803
▁owuyadeɛ	-4804
▁wɔhwehwɛ	-4805
以色列之上帝耶和華	-4806
▁omununkum	-4807
▁sikakɔkɔɔ	-4808
▁siriahene	-4809
▁honhommɔne	-4810
fɔ	-4811
▁列	-4812
▁呼	-4813
之四	-4814
亨通	-4815
俞允	-4816
凡事	-4817
前之	-4818
問爾	-4819
土壤	-4820
報之	-4821
巴珊	-4822
我心	-4823
撒督	-4824
救者	-4825
於斯	-4826
服事	-4827
此言	-4828
死之	-4829
滅亡	-4830
瑪雅	-4831
畏懼	-4832
痛苦	-4833
盈以	-4834
繁衍	-4835
羣畜	-4836
荒涼	-4837
製之	-4838
西乃	-4839
觀之	-4840
諮諏	-4841
識之	-4842
離我	-4843
gai	-4844
kam	-4845
ɔho	-4846
▁亦將	-4847
▁何為	-4848
▁其所	-4849
▁凡此	-4850
▁加以	-4851
▁彼亦	-4852
▁惡者	-4853
▁迦南	-4854
亞蘭人	-4855
四十年	-4856
約拿單	-4857
諭我曰	-4858
naba	-4859
nyae	-4860
teɛm	-4861
tuaa	-4862
為耶和華	-4863
bobɔɔ	-4864
inwii	-4865
tufoɔ	-4866
ɛntɛn	-4867
▁abom	-4868
▁asau	-4869
▁bobɔ	-4870
▁deɛn	-4871
▁hare	-4872
▁mafa	-4873
▁mpra	-4874
▁mɛkɔ	-4875
▁nsom	-4876
▁nwan	-4877
▁suko	-4878
▁wohu	-4879
▁yera	-4880
▁惟耶和華	-4881
muɔden	-4882
seafoɔ	-4883
▁afunu	-4884
▁ahopo	-4885
▁ahuru	-4886
▁dunum	-4887
▁mpapo	-4888
▁sɛsɛɛ	-4889
▁woyii	-4890
▁wɔsii	-4891
▁wɔtuu	-4892
▁耶穌語之曰	-4893
耶路撒冷居民	-4894
yansafo	-4895
▁aburow	-4896
▁kiriat	-4897
▁munnim	-4898
▁nkamfo	-4899
▁tumfoɔ	-4900
▁wɔfrɛɛ	-4901
▁ahyehyɛ	-4902
▁asomfoɔ	-4903
▁barnaba	-4904
▁koogyan	-4905
▁monsɔre	-4906
▁nkrante	-4907
▁wogyina	-4908
▁ɔbɛtena	-4909
▁mmabanin	-4910
▁monkamfo	-4911
▁aduɔwɔtwe	-4912
▁guankɔbea	-4913
▁nkwaseafoɔ	-4914
▁nnwontofoɔ	-4915
▁ntweneduro	-4916
▁ɔdebɔneyɛfo	-4917
▁事	-4918
▁俟	-4919
▁庶	-4920
▁門	-4921
之出	-4922
之妻	-4923
之路	-4924
二年	-4925
其國	-4926
其足	-4927
同宗	-4928
啟示	-4929
安居	-4930
就我	-4931
成聖	-4932
救援	-4933
會集	-4934
油之	-4935
盡滅	-4936
羅得	-4937
翦滅	-4938
而見	-4939
迦得	-4940
遂往	-4941
邪惡	-4942
飲之	-4943
魔鬼	-4944
emu	-4945
poo	-4946
reb	-4947
▁大聲	-4948
▁屆期	-4949
▁彼以	-4950
▁必得	-4951
▁愈於	-4952
▁於爾	-4953
▁是乃	-4954
▁會眾	-4955
▁爾欲	-4956
上帝前	-4957
其所有	-4958
於其所	-4959
生之子	-4960
約沙法	-4961
dani	-4962
hini	-4963
huam	-4964
hwee	-4965
rɛma	-4966
terɛ	-4967
▁lea	-4968
▁nse	-4969
▁tar	-4970
▁ɔwo	-4971
▁ɔye	-4972
▁耶穌曰	-4973
▁非利士	-4974
亞比米勒	-4975
以利亞撒	-4976
saret	-4977
▁hwɛe	-4978
▁mahu	-4979
▁masi	-4980
▁mihu	-4981
▁muhu	-4982
▁nnyɛ	-4983
▁nyam	-4984
▁rebɔ	-4985
▁teeɛ	-4986
▁ɔbrɛ	-4987
▁我上帝歟	-4988
▁為贖罪祭	-4989
▁abant	-4990
▁adoni	-4991
▁asera	-4992
▁ayera	-4993
▁kohat	-4994
▁mmɔre	-4995
▁nante	-4996
▁nhini	-4997
▁ogyee	-4998
▁sihon	-4999
▁woduu	-5000
▁wɔboa	-5001
▁ahodeɛ	-5002
▁asɛnka	-5003
▁hesbon	-5004
▁hilkia	-5005
▁persia	-5006
▁yudani	-5007
▁ɔgyina	-5008
▁ɔpɔnkɔ	-5009
▁ɔtemmu	-5010
yinsɛnee	-5011
▁dubaako	-5012
▁gyegyee	-5013
▁hyehyɛɛ	-5014
▁moantie	-5015
▁asɔrefie	-5016
▁atorosɛm	-5017
▁mmoadoma	-5018
▁filistini	-5019
▁nyansafoɔ	-5020
▁yebusifoɔ	-5021
▁abantenten	-5022
▁afɔrebɔdeɛ	-5023
▁dwanekɔbea	-5024
▁mpemaduonu	-5025
he	-5026
▁否	-5027
▁實	-5028
▁少	-5029
▁環	-5030
▁盛	-5031
▁踐	-5032
▁靡	-5033
一肘	-5034
之期	-5035
之業	-5036
二子	-5037
依其	-5038
六百	-5039
召之	-5040
哈拿	-5041
在於	-5042
地上	-5043
基遍	-5044
居處	-5045
悲哀	-5046
感謝	-5047
懷妊	-5048
撒勒	-5049
攻爾	-5050
救之	-5051
於火	-5052
於田	-5053
是日	-5054
木偶	-5055
未至	-5056
核者	-5057
歸我	-5058
歸爾	-5059
殺我	-5060
為證	-5061
爾乎	-5062
爾兮	-5063
牡羔	-5064
獲勝	-5065
田畝	-5066
穹蒼	-5067
而呼	-5068
而有	-5069
而食	-5070
色之	-5071
虛偽	-5072
長子	-5073
離爾	-5074
ɔbɔ	-5075
▁以待	-5076
▁其數	-5077
▁參孫	-5078
▁哥轄	-5079
▁對曰	-5080
▁由此	-5081
我所命	-5082
boni	-5083
bura	-5084
paee	-5085
seni	-5086
umfo	-5087
yane	-5088
▁fom	-5089
▁nha	-5090
▁obo	-5091
▁taa	-5092
▁ɔho	-5093
▁基督之	-5094
▁我必以	-5095
▁我語爾	-5096
典章律例	-5097
duane	-5098
dwira	-5099
etewa	-5100
trɛtɛ	-5101
wenee	-5102
▁afuw	-5103
▁akun	-5104
▁apaa	-5105
▁bɛwu	-5106
▁mokɔ	-5107
▁obed	-5108
▁seme	-5109
▁silo	-5110
▁yebe	-5111
▁ɔnom	-5112
ummɔbɔ	-5113
▁abebu	-5114
▁abɔde	-5115
▁afɛfɛ	-5116
▁agyim	-5117
▁akosi	-5118
▁ayeyɛ	-5119
▁haran	-5120
▁hwene	-5121
▁hɔhoɔ	-5122
▁kumaa	-5123
▁獻於耶和華	-5124
▁abotan	-5125
▁adwini	-5126
▁ahobrɛ	-5127
▁kokoam	-5128
▁mobɛyɛ	-5129
▁nkumaa	-5130
▁wosuro	-5131
▁wɔgyaa	-5132
▁wɔhunu	-5133
▁ɔbɛdii	-5134
▁ɔsomfo	-5135
▁ɛdɔɔso	-5136
▁abɔnefo	-5137
▁ahennwa	-5138
▁aponnwa	-5139
▁nsateaa	-5140
▁wɔbɛtwa	-5141
▁wɔntumi	-5142
▁ahummɔbɔ	-5143
▁mekyerɛɛ	-5144
▁anisoadehunu	-5145
▁僅	-5146
▁充	-5147
▁師	-5148
▁拔	-5149
▁指	-5150
▁激	-5151
▁甚	-5152
▁繫	-5153
▁負	-5154
一日	-5155
不悅	-5156
之半	-5157
之外	-5158
以所	-5159
其生	-5160
其神	-5161
出其	-5162
咸集	-5163
哈達	-5164
堅立	-5165
大能	-5166
孑遺	-5167
已死	-5168
希律	-5169
我子	-5170
戰鬥	-5171
所未	-5172
是巴	-5173
步履	-5174
殺戮	-5175
比拉	-5176
為人	-5177
爾中	-5178
爾祖	-5179
牧者	-5180
百加	-5181
知也	-5182
羔羊	-5183
聖民	-5184
至聖	-5185
衛長	-5186
許願	-5187
離其	-5188
bes	-5189
ham	-5190
hin	-5191
rea	-5192
▁以掃	-5193
▁依其	-5194
▁又以	-5195
▁孰能	-5196
▁我知	-5197
▁為己	-5198
▁爾言	-5199
▁眾民	-5200
▁約伯	-5201
▁萬軍	-5202
▁請以	-5203
上帝國	-5204
以斯帖	-5205
牡山羊	-5206
猶大之	-5207
約阿施	-5208
rewa	-5209
▁hin	-5210
▁wom	-5211
▁摩西曰	-5212
於上帝前	-5213
民以色列	-5214
純全無疵	-5215
迦勒底人	-5216
kɔfoɔ	-5217
ranom	-5218
suane	-5219
▁akua	-5220
▁didi	-5221
▁kyia	-5222
▁kɔma	-5223
▁menn	-5224
▁mifi	-5225
▁neba	-5226
▁sɛee	-5227
▁tire	-5228
▁wodɔ	-5229
▁wɔwo	-5230
▁ɛkaa	-5231
▁ɛtwa	-5232
慈惠永存兮	-5233
遵耶和華命	-5234
rankaa	-5235
wisiaa	-5236
▁abubu	-5237
▁kɔfaa	-5238
▁mmobɔ	-5239
▁mmɔho	-5240
▁wagye	-5241
▁wɔtaa	-5242
▁ɔsuro	-5243
▁ɛfata	-5244
▁abɔsoɔ	-5245
▁ahasia	-5246
▁aniwuo	-5247
▁gerson	-5248
▁hwɛfoɔ	-5249
▁kɔduru	-5250
▁mereba	-5251
▁monnni	-5252
▁wonnye	-5253
▁aguaman	-5254
▁asuogya	-5255
▁meremfa	-5256
▁nsusuiɛ	-5257
▁tɛtrɛtɛ	-5258
▁yohanan	-5259
▁ɔdasani	-5260
▁odwanten	-5261
▁wɔantumi	-5262
▁wɔkyeree	-5263
▁afɔremuka	-5264
▁sorɔnsorɔn	-5265
▁垂	-5266
▁容	-5267
▁張	-5268
▁散	-5269
▁望	-5270
▁罪	-5271
▁遠	-5272
▁雲	-5273
之前	-5274
之工	-5275
之有	-5276
之行	-5277
何人	-5278
十人	-5279
哈曼	-5280
在其	-5281
夕乃	-5282
復仇	-5283
接吻	-5284
於所	-5285
死中	-5286
無酵	-5287
眾子	-5288
瞽者	-5289
翌日	-5290
者有	-5291
而下	-5292
而外	-5293
聖地	-5294
聖徒	-5295
聖物	-5296
臨之	-5297
臨陳	-5298
自潔	-5299
行鞫	-5300
記憶	-5301
諸敵	-5302
隨之	-5303
飛鳥	-5304
iaa	-5305
poɔ	-5306
▁fe	-5307
▁亞拿	-5308
▁免其	-5309
▁其聽	-5310
▁則為	-5311
▁即我	-5312
▁如人	-5313
▁如昔	-5314
▁導爾	-5315
▁必有	-5316
▁於我	-5317
▁流便	-5318
▁爾在	-5319
▁爾父	-5320
▁義人	-5321
二十歲	-5322
亦如是	-5323
以賽亞	-5324
所言者	-5325
有其時	-5326
而殺之	-5327
與之同	-5328
anum	-5329
butu	-5330
hyew	-5331
nuam	-5332
roni	-5333
▁ahe	-5334
▁bea	-5335
▁dɔn	-5336
▁rem	-5337
▁亞摩利	-5338
▁告之曰	-5339
▁牡山羊	-5340
▁迨夕乃	-5341
耶何耶大	-5342
dalia	-5343
yanee	-5344
yinii	-5345
▁ammɛ	-5346
▁asaf	-5347
▁asia	-5348
▁behu	-5349
▁boro	-5350
▁hyee	-5351
▁maba	-5352
▁make	-5353
▁miam	-5354
▁nsen	-5355
▁ntaa	-5356
▁otwa	-5357
▁popo	-5358
▁sesa	-5359
▁wabɛ	-5360
▁wobɔ	-5361
▁wɔdɔ	-5362
▁yɛpɛ	-5363
▁ɔmmɛ	-5364
▁ɔnim	-5365
▁與其鄉里	-5366
以色列族云	-5367
以色列會眾	-5368
rempɔn	-5369
trenee	-5370
▁adɔfo	-5371
▁ahyeɛ	-5372
▁akwaa	-5373
▁kɔtoo	-5374
▁maaka	-5375
▁mekɔɔ	-5376
▁nohoa	-5377
▁wɔnka	-5378
▁wɔnku	-5379
▁yefta	-5380
▁yesua	-5381
▁ɔbere	-5382
▁ɔreka	-5383
▁awareɛ	-5384
▁baanum	-5385
▁bobesa	-5386
▁karmel	-5387
▁mmofra	-5388
▁moanya	-5389
▁ngodua	-5390
▁nkasɛɛ	-5391
▁woahyɛ	-5392
▁abiatar	-5393
▁ahemman	-5394
▁ahwehwɛ	-5395
▁hwehwɛɛ	-5396
▁nkɔnsɔn	-5397
▁ɔbɛtumi	-5398
▁ɔhemmaa	-5399
kyekyeree	-5400
▁ateasefo	-5401
▁atukɔfoɔ	-5402
▁aberempɔn	-5403
▁nkyekyɛmu	-5404
▁anifuraefo	-5405
▁gyegyeegye	-5406
▁前	-5407
▁司	-5408
▁對	-5409
▁慎	-5410
▁方	-5411
▁污	-5412
▁決	-5413
▁況	-5414
▁留	-5415
▁虜	-5416
▁降	-5417
之多	-5418
之數	-5419
之際	-5420
五人	-5421
以火	-5422
以石	-5423
使人	-5424
供役	-5425
北方	-5426
哈斯	-5427
器皿	-5428
安然	-5429
寶石	-5430
巴拉	-5431
必有	-5432
悅納	-5433
我必	-5434
拉結	-5435
敬虔	-5436
於上	-5437
於世	-5438
於己	-5439
椶樹	-5440
權衡	-5441
流血	-5442
淪亡	-5443
為義	-5444
王與	-5445
發誓	-5446
而入	-5447
能力	-5448
街衢	-5449
託庇	-5450
詭譎	-5451
譴責	-5452
迎之	-5453
近矣	-5454
遵行	-5455
非由	-5456
鞏固	-5457
順服	-5458
顯見	-5459
麰麥	-5460
haw	-5461
rsa	-5462
rum	-5463
▁pu	-5464
▁ɛd	-5465
▁以東	-5466
▁則不	-5467
▁地上	-5468
▁基甸	-5469
▁智者	-5470
▁焚香	-5471
▁爾見	-5472
▁皆為	-5473
▁維時	-5474
▁錫嘏	-5475
兄弟乎	-5476
其所為	-5477
即位時	-5478
未受割	-5479
百二十	-5480
耶穌之	-5481
耶穌曰	-5482
ammɔ	-5483
hwan	-5484
ifoɔ	-5485
kyɛɛ	-5486
turo	-5487
▁due	-5488
▁duu	-5489
▁ela	-5490
▁fae	-5491
▁kis	-5492
▁kuo	-5493
▁sin	-5494
▁ɛbɔ	-5495
▁ɛyi	-5496
▁亞伯蘭	-5497
至巴比倫	-5498
antam	-5499
tiriw	-5500
▁afra	-5501
▁amee	-5502
▁bɔfo	-5503
▁bɛte	-5504
▁ehia	-5505
▁mudi	-5506
▁nnka	-5507
▁tene	-5508
▁yɛmm	-5509
子耶羅波安	-5510
kɔnsɔn	-5511
▁akuro	-5512
▁asisi	-5513
▁ayeyi	-5514
▁bɛgye	-5515
▁mefrɛ	-5516
▁migye	-5517
▁moadi	-5518
▁mugye	-5519
▁mɛgye	-5520
▁nufoɔ	-5521
▁pɛsɛɛ	-5522
▁safan	-5523
▁tamar	-5524
▁wisie	-5525
▁wohui	-5526
▁ɔbɛkɔ	-5527
▁ɔnyaa	-5528
▁ɔreba	-5529
wammɔne	-5530
▁akyere	-5531
▁daakye	-5532
▁mpataa	-5533
▁rebeka	-5534
▁worebɛ	-5535
▁ɔsusuu	-5536
▁ankɔbea	-5537
▁gedalia	-5538
▁mprɛnsa	-5539
▁nasaret	-5540
▁wɔannya	-5541
▁abususɛm	-5542
▁babarima	-5543
▁kaneadua	-5544
▁mfitiase	-5545
▁hohommɔne	-5546
▁ogyaframa	-5547
▁tweneduro	-5548
▁abɔnefosɛm	-5549
▁nkyerɛaseɛ	-5550
▁onifuraefo	-5551
▁ateneneefoɔ	-5552
▁再	-5553
▁勝	-5554
▁啞	-5555
▁噫	-5556
▁成	-5557
▁救	-5558
▁植	-5559
▁索	-5560
▁背	-5561
▁著	-5562
▁詰	-5563
七人	-5564
不已	-5565
不從	-5566
不認	-5567
之火	-5568
之石	-5569
什一	-5570
以己	-5571
低斯	-5572
何如	-5573
侮慢	-5574
八人	-5575
助我	-5576
受浸	-5577
同在	-5578
問曰	-5579
子及	-5580
寄名	-5581
待我	-5582
必不	-5583
必死	-5584
所作	-5585
拿巴	-5586
日下	-5587
時也	-5588
晦冥	-5589
木作	-5590
歡樂	-5591
毀之	-5592
為潔	-5593
焉能	-5594
燈臺	-5595
爾也	-5596
皂莢	-5597
示我	-5598
祭壇	-5599
禾場	-5600
而拜	-5601
而立	-5602
聰明	-5603
聽其	-5604
補過	-5605
語曰	-5606
諸天	-5607
贖之	-5608
迦特	-5609
遠方	-5610
bna	-5611
bot	-5612
pra	-5613
sis	-5614
tem	-5615
▁以金	-5616
▁使人	-5617
▁全能	-5618
▁其來	-5619
▁其子	-5620
▁其父	-5621
▁則爾	-5622
▁守我	-5623
▁崇拜	-5624
▁左右	-5625
▁我欲	-5626
▁我非	-5627
▁所行	-5628
▁爾來	-5629
▁爾心	-5630
▁自天	-5631
▁若有	-5632
▁西門	-5633
三色之	-5634
之使者	-5635
伊法十	-5636
別是巴	-5637
埃及王	-5638
基大利	-5639
子亞希	-5640
希伯來	-5641
所多瑪	-5642
於曠野	-5643
有孑遺	-5644
諸先知	-5645
home	-5646
isɛm	-5647
kafo	-5648
nwen	-5649
▁hoo	-5650
▁mpɔ	-5651
▁押尼珥	-5652
猶大諸邑	-5653
猶太人之	-5654
耶和華者	-5655
贖罪之祭	-5656
antee	-5657
buafo	-5658
entan	-5659
hwere	-5660
▁boas	-5661
▁bɛgu	-5662
▁bɛso	-5663
▁duro	-5664
▁odii	-5665
▁ohui	-5666
▁owui	-5667
▁usia	-5668
▁ɛhyɛ	-5669
▁以色列歟	-5670
▁歷至七日	-5671
▁純全無疵	-5672
▁耶和華以	-5673
▁耶羅波安	-5674
▁至於今日	-5675
▁迨夕乃免	-5676
▁akora	-5677
▁bɛyɛɛ	-5678
▁hunta	-5679
▁mommɛ	-5680
▁nhema	-5681
▁sɔhwɛ	-5682
▁wɔatu	-5683
▁atokoɔ	-5684
▁lewini	-5685
▁minnim	-5686
▁montwe	-5687
▁mpasua	-5688
▁mɛtena	-5689
▁nnware	-5690
▁taterɛ	-5691
▁tokuro	-5692
▁wobedi	-5693
▁wobisa	-5694
▁wɔkumm	-5695
▁wɔreyɛ	-5696
▁ɔbɛnya	-5697
urukyire	-5698
▁etiopia	-5699
▁frankaa	-5700
▁ninkunu	-5701
▁nketewa	-5702
▁nkurowa	-5703
▁osuboni	-5704
▁wobegye	-5705
▁wɔafiri	-5706
▁wɔbobɔɔ	-5707
▁wɔnhunu	-5708
▁ɛrenkyɛ	-5709
▁bobeturo	-5710
▁nnapɔnna	-5711
▁nokwarem	-5712
▁rubenfoɔ	-5713
▁anyansafo	-5714
▁atɛntrenee	-5715
▁nkɔnsɔnkɔnsɔn	-5716
▁和	-5717
▁好	-5718
▁尊	-5719
▁常	-5720
▁干	-5721
▁新	-5722
▁易	-5723
▁棄	-5724
▁燬	-5725
▁率	-5726
▁益	-5727
▁達	-5728
▁面	-5729
▁風	-5730
三百	-5731
不欲	-5732
乃心	-5733
之亞	-5734
之境	-5735
之約	-5736
之羊	-5737
之至	-5738
伊勒	-5739
作證	-5740
儆醒	-5741
加拿	-5742
及我	-5743
受詛	-5744
啟口	-5745
四方	-5746
國位	-5747
地極	-5748
執兵	-5749
大事	-5750
大雅	-5751
尼子	-5752
巴勒	-5753
待爾	-5754
悅之	-5755
愛爾	-5756
應而	-5757
我足	-5758
戰士	-5759
揚聲	-5760
斯王	-5761
於亞	-5762
於水	-5763
既至	-5764
書蘭	-5765
有五	-5766
有此	-5767
東方	-5768
波設	-5769
無他	-5770
片時	-5771
特甚	-5772
病者	-5773
紫絳	-5774
而居	-5775
耶西	-5776
處女	-5777
行伍	-5778
釋之	-5779
阿斯	-5780
降災	-5781
陷於	-5782
靡暨	-5783
顯者	-5784
fel	-5785
hwi	-5786
nan	-5787
omi	-5788
ote	-5789
soo	-5790
▁eu	-5791
▁七日	-5792
▁世人	-5793
▁人必	-5794
▁以所	-5795
▁以至	-5796
▁何以	-5797
▁其一	-5798
▁其心	-5799
▁及所	-5800
▁在其	-5801
▁往哉	-5802
▁必為	-5803
▁眾皆	-5804
▁緣爾	-5805
▁翌日	-5806
▁遣人	-5807
▁非也	-5808
五十人	-5809
便哈達	-5810
四周之	-5811
於民中	-5812
日將至	-5813
約但東	-5814
bunu	-5815
dɔre	-5816
fraa	-5817
siel	-5818
▁dee	-5819
▁mam	-5820
▁mar	-5821
▁mɛn	-5822
▁yiw	-5823
▁惟上帝	-5824
▁百夫長	-5825
▁米拉利	-5826
nyina	-5827
▁elam	-5828
▁esra	-5829
▁gera	-5830
▁ntea	-5831
▁okuo	-5832
▁pata	-5833
▁pete	-5834
▁wakɔ	-5835
▁yoia	-5836
▁ɔtaa	-5837
▁ɔtuu	-5838
▁ɛmfa	-5839
▁亞比米勒	-5840
▁牡綿羊一	-5841
以色列人之	-5842
於以色列人	-5843
於耶和華室	-5844
耶路撒冷之	-5845
kuntwe	-5846
womfoɔ	-5847
▁abɛyɛ	-5848
▁ankyɛ	-5849
▁asese	-5850
▁atotɔ	-5851
▁bɛnya	-5852
▁kokoɔ	-5853
▁kyeeɛ	-5854
▁mpren	-5855
▁wɔhye	-5856
▁wɔmmu	-5857
▁yɛate	-5858
▁一歲之牡羔	-5859
▁主耶和華歟	-5860
▁gadfoɔ	-5861
▁mefrɛɛ	-5862
▁mehwɛe	-5863
▁woagye	-5864
▁ɔnokwa	-5865
▁耶和華之使者	-5866
▁abɛduru	-5867
▁anyinam	-5868
▁atenaeɛ	-5869
▁bɛkyerɛ	-5870
▁hetifoɔ	-5871
▁mfomsoɔ	-5872
▁wɔgyina	-5873
▁yehoram	-5874
▁adwumayɛ	-5875
▁batakari	-5876
▁kyekyere	-5877
▁nkotodwe	-5878
▁wɔbɛtumi	-5879
▁ahobrɛase	-5880
▁mmirekyie	-5881
▁nnamfonom	-5882
▁ɔberempɔn	-5883
▁均	-5884
▁幕	-5885
▁效	-5886
▁智	-5887
▁樂	-5888
▁解	-5889
一年	-5890
中心	-5891
之士	-5892
之山	-5893
之美	-5894
伸冤	-5895
何往	-5896
偕居	-5897
僕曰	-5898
入其	-5899
八年	-5900
八日	-5901
其事	-5902
其妻	-5903
出於	-5904
出自	-5905
卜筮	-5906
友乎	-5907
在地	-5908
城邑	-5909
將以	-5910
己生	-5911
成全	-5912
所居	-5913
所食	-5914
拉瑪	-5915
掩面	-5916
摩拉	-5917
撒但	-5918
撒迦	-5919
於民	-5920
淫亂	-5921
為一	-5922
焚之	-5923
無益	-5924
煩擾	-5925
眾多	-5926
紅海	-5927
臨爾	-5928
舞蹈	-5929
行善	-5930
行浸	-5931
諸民	-5932
遭難	-5933
錫爾	-5934
飲酒	-5935
黎明	-5936
默然	-5937
▁不聽	-5938
▁亦為	-5939
▁以刃	-5940
▁凡事	-5941
▁在爾	-5942
▁如我	-5943
▁我僕	-5944
▁此外	-5945
▁當以	-5946
▁約蘭	-5947
▁自謂	-5948
亞捫族	-5949
付之於	-5950
希實本	-5951
所立之	-5952
押尼珥	-5953
於基督	-5954
為我民	-5955
與從者	-5956
藍紫絳	-5957
kani	-5958
kyɛn	-5959
oteo	-5960
sraa	-5961
sɛne	-5962
▁aya	-5963
▁dwa	-5964
▁esu	-5965
▁ken	-5966
▁pae	-5967
▁pue	-5968
▁soo	-5969
▁巴比倫	-5970
▁我與爾	-5971
三色之縷	-5972
boset	-5973
dwerɛ	-5974
frate	-5975
▁akas	-5976
▁anum	-5977
▁hwie	-5978
▁kain	-5979
▁mato	-5980
▁mɛdi	-5981
▁nnie	-5982
▁nntu	-5983
▁ntan	-5984
▁onii	-5985
▁toaa	-5986
▁twɛn	-5987
▁wabu	-5988
▁yerɛ	-5989
▁ɔnya	-5990
▁ɔnyi	-5991
▁ɔtan	-5992
▁ɛbɛn	-5993
▁ɛsom	-5994
▁我耶和華	-5995
▁耶和華使	-5996
▁靡有孑遺	-5997
與列祖偕眠	-5998
duanan	-5999
inadab	-6000
▁abobo	-6001
▁adiyi	-6002
▁ahɔho	-6003
▁anhyɛ	-6004
▁atoaa	-6005
▁botan	-6006
▁kades	-6007
▁kɔbɔɔ	-6008
▁mebɔɔ	-6009
▁mefaa	-6010
▁mmɛwa	-6011
▁nomee	-6012
▁salum	-6013
▁sufrɛ	-6014
▁tease	-6015
▁tebea	-6016
▁tetee	-6017
▁waree	-6018
▁weros	-6019
▁wokaa	-6020
▁wɔahu	-6021
▁ɔbɛfa	-6022
▁ɛwowɔ	-6023
hunufoɔ	-6024
porebea	-6025
▁afotuo	-6026
▁kɛntɛn	-6027
▁nkyɛmu	-6028
▁nnedua	-6029
▁ntampe	-6030
▁obegye	-6031
▁siesie	-6032
▁somfoɔ	-6033
▁tarsis	-6034
▁wɔanya	-6035
▁ɔduruu	-6036
▁ɔsrane	-6037
藍紫絳三色之縷	-6038
▁amumɔyɛ	-6039
▁eufrate	-6040
▁hanania	-6041
▁meremma	-6042
▁mesomaa	-6043
▁momfiri	-6044
▁monhunu	-6045
▁ntentan	-6046
▁ntweaso	-6047
▁timoteo	-6048
▁ɔfoforo	-6049
▁abusudeɛ	-6050
▁mmerante	-6051
▁nhyehyɛe	-6052
▁nkotosrɛ	-6053
▁wɔbɛhunu	-6054
巴比倫王尼布甲尼撒	-6055
▁anwummere	-6056
▁ninkuntwe	-6057
▁nnommumfa	-6058
▁wɔantwerɛ	-6059
▁abosonhuhuo	-6060
▁ahodwirideɛ	-6061
mo	-6062
us	-6063
▁堅	-6064
▁報	-6065
▁室	-6066
▁察	-6067
▁尋	-6068
▁據	-6069
▁母	-6070
▁法	-6071
▁獨	-6072
▁瑣	-6073
▁細	-6074
▁藉	-6075
▁藏	-6076
▁載	-6077
▁過	-6078
▁酒	-6079
▁馬	-6080
▁驅	-6081
世世	-6082
之如	-6083
之狀	-6084
之田	-6085
之界	-6086
之職	-6087
乳香	-6088
人乎	-6089
何言	-6090
信而	-6091
側耳	-6092
僕婢	-6093
其數	-6094
同居	-6095
子米	-6096
家宰	-6097
寡婦	-6098
尼哈	-6099
崇高	-6100
形軀	-6101
後裔	-6102
救爾	-6103
於何	-6104
於幕	-6105
於邑	-6106
有聲	-6107
有能	-6108
此諸	-6109
永例	-6110
注目	-6111
潔者	-6112
為所	-6113
營外	-6114
爾命	-6115
爾子	-6116
真實	-6117
罪之	-6118
聽從	-6119
至上	-6120
舉目	-6121
舉祭	-6122
荒墟	-6123
西頓	-6124
謝拉	-6125
賜之	-6126
轉而	-6127
遣爾	-6128
dum	-6129
eli	-6130
geb	-6131
rna	-6132
ruk	-6133
sim	-6134
tum	-6135
▁不加	-6136
▁今則	-6137
▁凡歷	-6138
▁則我	-6139
▁勿以	-6140
▁即其	-6141
▁即爾	-6142
▁又見	-6143
▁天下	-6144
▁婦曰	-6145
▁師乎	-6146
▁拉班	-6147
▁是故	-6148
▁永世	-6149
▁然後	-6150
▁然爾	-6151
▁爾我	-6152
▁爾曾	-6153
▁爾自	-6154
▁爾非	-6155
▁當日	-6156
▁論及	-6157
上帝者	-6158
亞瑪力	-6159
在埃及	-6160
布斯人	-6161
為爾所	-6162
獻禮物	-6163
與之言	-6164
frɔm	-6165
kyea	-6166
pamo	-6167
porɔ	-6168
riel	-6169
tase	-6170
totɔ	-6171
twom	-6172
ummɛ	-6173
▁bil	-6174
▁dɛm	-6175
▁hel	-6176
▁sem	-6177
▁sil	-6178
▁今而後	-6179
▁掃羅曰	-6180
▁迦勒底	-6181
上帝之道	-6182
素祭灌祭	-6183
babel	-6184
kafoɔ	-6185
mudeɛ	-6186
▁akon	-6187
▁befi	-6188
▁bota	-6189
▁buee	-6190
▁bɛtɔ	-6191
▁dada	-6192
▁frɔm	-6193
▁keka	-6194
▁kɛtɛ	-6195
▁nhyi	-6196
▁ntut	-6197
▁ofii	-6198
▁sela	-6199
▁teaa	-6200
▁tutu	-6201
▁ɔfrɛ	-6202
▁我主我王	-6203
▁故耶和華	-6204
▁耶和華所	-6205
與以色列人	-6206
fraase	-6207
hyerɛn	-6208
suanee	-6209
yimiiɛ	-6210
▁akoko	-6211
▁amnon	-6212
▁aseni	-6213
▁baruk	-6214
▁butuu	-6215
▁dario	-6216
▁kumfɔ	-6217
▁mesee	-6218
▁mpɛpɛ	-6219
▁negeb	-6220
▁nkogu	-6221
▁sekan	-6222
▁semes	-6223
▁wamfa	-6224
▁wɔawo	-6225
▁wɔmmɛ	-6226
▁wɔnim	-6227
▁yotam	-6228
▁ɔhome	-6229
▁ɛboro	-6230
wentwɛn	-6231
wiinwii	-6232
▁abaawa	-6233
▁amanne	-6234
▁anomaa	-6235
▁bɛduru	-6236
▁kyeree	-6237
▁mereyɛ	-6238
▁mfenaa	-6239
▁mfɛfoɔ	-6240
▁mpensa	-6241
▁mprenu	-6242
▁mɛsoma	-6243
▁obenya	-6244
▁rekɔbɔ	-6245
▁ɔpaani	-6246
▁我上帝耶和華	-6247
▁adoniya	-6248
▁akraman	-6249
▁asiesie	-6250
▁asubura	-6251
▁ayeforɔ	-6252
▁bɛgyina	-6253
▁nkɔmhyɛ	-6254
▁wɔbɛsɛe	-6255
▁ɔtamfoɔ	-6256
▁adekyeeɛ	-6257
▁atentene	-6258
▁dunwɔtwe	-6259
▁frɔmfrɔm	-6260
▁kyerɛpɛn	-6261
▁nkyimiiɛ	-6262
▁nnwammaa	-6263
▁ntutummɛ	-6264
▁wɔbɛtena	-6265
▁aponkɛseɛ	-6266
▁atenetene	-6267
▁dɔmmarima	-6268
▁misraimni	-6269
▁ayuporebea	-6270
▁nkwaseasɛm	-6271
▁ntampehoma	-6272
▁ahonhommɔne	-6273
▁atɛntenenee	-6274
▁benyaminfoɔ	-6275
▁nnwanhwɛfoɔ	-6276
▁壯	-6277
▁夏	-6278
▁外	-6279
▁娶	-6280
▁懸	-6281
▁柱	-6282
▁殘	-6283
▁特	-6284
▁知	-6285
▁謀	-6286
▁進	-6287
七百	-6288
不顧	-6289
之二	-6290
之先	-6291
之衣	-6292
亞伯	-6293
亦將	-6294
以我	-6295
仰望	-6296
企望	-6297
信實	-6298
億兆	-6299
償之	-6300
出之	-6301
助之	-6302
友朋	-6303
可也	-6304
哈馬	-6305
困憊	-6306
在世	-6307
奇異	-6308
守爾	-6309
工作	-6310
平安	-6311
建之	-6312
所願	-6313
斯邑	-6314
於罪	-6315
明日	-6316
有六	-6317
有大	-6318
潔之	-6319
為善	-6320
為美	-6321
無赦	-6322
示麥	-6323
約伯	-6324
者以	-6325
而喜	-6326
而樂	-6327
聞此	-6328
至矣	-6329
良心	-6330
萬物	-6331
萬邦	-6332
見而	-6333
許之	-6334
詭詐	-6335
誰乎	-6336
諸會	-6337
驚駭	-6338
ewe	-6339
gar	-6340
har	-6341
lai	-6342
mpa	-6343
wim	-6344
▁互相	-6345
▁今當	-6346
▁其聲	-6347
▁十二	-6348
▁因彼	-6349
▁如彼	-6350
▁少者	-6351
▁惟以	-6352
▁我遂	-6353
▁我雖	-6354
▁手執	-6355
▁智慧	-6356
▁此非	-6357
▁爾於	-6358
▁示每	-6359
▁福矣	-6360
▁葡萄	-6361
▁蓋凡	-6362
▁西緬	-6363
▁赫人	-6364
▁迨及	-6365
▁遂以	-6366
▁阿們	-6367
上帝曰	-6368
之四周	-6369
人之手	-6370
伯利恆	-6371
半支派	-6372
在基督	-6373
嫩之子	-6374
所行之	-6375
烏利亞	-6376
細枲布	-6377
頌美之	-6378
twee	-6379
woso	-6380
▁dae	-6381
▁nun	-6382
▁sik	-6383
▁yis	-6384
▁ɔtu	-6385
▁亞倫曰	-6386
▁安息日	-6387
▁約阿施	-6388
便雅憫人	-6389
油之細麵	-6390
爾之上帝	-6391
相對之所	-6392
ameeɛ	-6393
ammoa	-6394
firim	-6395
oahoa	-6396
tidua	-6397
▁abua	-6398
▁abɔn	-6399
▁anis	-6400
▁atuu	-6401
▁bɛbu	-6402
▁enye	-6403
▁etwa	-6404
▁fire	-6405
▁kyin	-6406
▁meso	-6407
▁nidi	-6408
▁nkae	-6409
▁pira	-6410
▁reko	-6411
▁salm	-6412
▁sila	-6413
▁wate	-6414
▁wose	-6415
▁wuhu	-6416
▁ɔnka	-6417
▁ɔpon	-6418
二十歲以上	-6419
亞倫及其子	-6420
耶和華所命	-6421
antumi	-6422
kyekye	-6423
soroni	-6424
▁abobɔ	-6425
▁annye	-6426
▁arnon	-6427
▁awere	-6428
▁hwɛfo	-6429
▁kekaa	-6430
▁kusuu	-6431
▁nebat	-6432
▁nsene	-6433
▁ohwam	-6434
▁peres	-6435
▁sanee	-6436
▁wobɔɔ	-6437
▁wɔagu	-6438
▁wɔwea	-6439
▁yabes	-6440
八子耶羅波安	-6441
▁abisai	-6442
▁adaban	-6443
▁akyene	-6444
▁asiane	-6445
▁dunsia	-6446
▁kasaeɛ	-6447
▁kokuro	-6448
▁mikaia	-6449
▁monhyɛ	-6450
▁ninewe	-6451
▁ntɔkwa	-6452
▁osuani	-6453
▁sunsum	-6454
▁wobɛma	-6455
▁wɔakum	-6456
▁wɔanhu	-6457
▁wɔbɛte	-6458
▁wɔnhwɛ	-6459
▁wɔsuro	-6460
▁ɔbodan	-6461
▁ɔkɛseɛ	-6462
▁ɔsɔree	-6463
▁告以色列族云	-6464
▁adaaboɔ	-6465
▁adekora	-6466
▁ahiafoɔ	-6467
▁akuakuo	-6468
▁asɔrefi	-6469
▁ayamdeɛ	-6470
▁mesulam	-6471
▁miamiaa	-6472
▁mmoakuo	-6473
▁mɛkamfo	-6474
▁nenanom	-6475
▁ɔhwehwɛ	-6476
▁以其慈惠永存兮	-6477
▁adiyisɛm	-6478
▁akɔkoraa	-6479
▁asɛnnuam	-6480
▁kɔgyinaa	-6481
▁mpofirim	-6482
▁mprɛnson	-6483
▁okunafoɔ	-6484
▁teɛteɛɛm	-6485
▁wobɛhunu	-6486
▁ɔrentumi	-6487
▁abosonsom	-6488
▁ahantanfo	-6489
▁akwammɔne	-6490
▁akyekyere	-6491
▁nsubɔntene	-6492
▁atirimuɔden	-6493
▁ɔsorosoroni	-6494
▁俯	-6495
▁光	-6496
▁定	-6497
▁搖	-6498
▁斷	-6499
▁束	-6500
▁獲	-6501
▁祭	-6502
▁聖	-6503
▁腰	-6504
▁臨	-6505
▁舁	-6506
▁遺	-6507
乃志	-6508
之光	-6509
之入	-6510
之大	-6511
之幕	-6512
之望	-6513
之途	-6514
亦必	-6515
他祭	-6516
以來	-6517
伊邇	-6518
備之	-6519
入之	-6520
其口	-6521
其頓	-6522
利達	-6523
匱乏	-6524
十日	-6525
厥心	-6526
叢林	-6527
同儕	-6528
命爾	-6529
喧譁	-6530
天地	-6531
守其	-6532
將來	-6533
少許	-6534
居焉	-6535
巴錄	-6536
年邁	-6537
惟一	-6538
我手	-6539
拉班	-6540
斯事	-6541
於凡	-6542
於外	-6543
昌熾	-6544
有半	-6545
未有	-6546
枯槁	-6547
機檻	-6548
毅然	-6549
民長	-6550
無罪	-6551
班次	-6552
瑪迦	-6553
登山	-6554
登舟	-6555
眾民	-6556
祈求	-6557
秉公	-6558
稚獅	-6559
羅巴	-6560
者得	-6561
而哭	-6562
聖山	-6563
自知	-6564
與蜜	-6565
與諸	-6566
術士	-6567
補服	-6568
譯即	-6569
輕視	-6570
避所	-6571
食而	-6572
騎兵	-6573
hel	-6574
kis	-6575
lki	-6576
pee	-6577
sak	-6578
sor	-6579
▁乃因	-6580
▁全地	-6581
▁其國	-6582
▁則以	-6583
▁及我	-6584
▁古實	-6585
▁哀哉	-6586
▁在我	-6587
▁在此	-6588
▁巴珊	-6589
▁彼既	-6590
▁悖逆	-6591
▁惟當	-6592
▁或以	-6593
▁或曰	-6594
▁於其	-6595
▁是夜	-6596
▁此事	-6597
▁歸於	-6598
▁爾未	-6599
▁王謂	-6600
▁畢生	-6601
▁蓋有	-6602
▁詰朝	-6603
▁錫安	-6604
▁革順	-6605
之火祭	-6606
人之地	-6607
多尼雅	-6608
拿撒勒	-6609
於天下	-6610
施恩座	-6611
無酵餅	-6612
王西宏	-6613
約西亞	-6614
者之口	-6615
biri	-6616
hare	-6617
seia	-6618
toto	-6619
tufo	-6620
▁bel	-6621
▁efe	-6622
▁fuw	-6623
▁guo	-6624
▁mee	-6625
▁oho	-6626
▁osi	-6627
▁rim	-6628
▁sui	-6629
▁見核者	-6630
▁語之曰	-6631
耶利米曰	-6632
fufuo	-6633
rimaa	-6634
▁amim	-6635
▁angu	-6636
▁apae	-6637
▁asra	-6638
▁dura	-6639
▁dwon	-6640
▁gasa	-6641
▁kuku	-6642
▁maki	-6643
▁mpea	-6644
▁pɛyɛ	-6645
▁sidi	-6646
▁wahu	-6647
▁wokɔ	-6648
▁ɔbuu	-6649
▁ɔsie	-6650
▁ɔsɔɔ	-6651
▁ɛnkɔ	-6652
▁以上所載	-6653
▁拿弗他利	-6654
▁𠵽唎㘔人	-6655
▁akɔfa	-6656
▁bɛsɛe	-6657
▁efunu	-6658
▁hyira	-6659
▁lakis	-6660
▁mebaa	-6661
▁mɛhyɛ	-6662
▁nkɔtɔ	-6663
▁nsono	-6664
▁osebɔ	-6665
▁ramot	-6666
▁satan	-6667
▁wonhu	-6668
▁wonya	-6669
▁wugye	-6670
▁wuwui	-6671
▁ɔhwɛɛ	-6672
▁ɔnnim	-6673
▁ɛbɛdi	-6674
之耶和華而誓	-6675
risifoɔ	-6676
▁awɛmfo	-6677
▁mennya	-6678
▁mmeamu	-6679
▁montwa	-6680
▁nhwɛso	-6681
▁wɔforo	-6682
▁ɔntena	-6683
▁行耶和華所惡	-6684
▁aboɔden	-6685
▁ahurusi	-6686
▁akɔduru	-6687
▁anibere	-6688
▁animgua	-6689
▁mɛkyerɛ	-6690
▁nkuruwa	-6691
▁ntwonoo	-6692
▁nyarewa	-6693
▁wiasefo	-6694
▁wɔatoto	-6695
▁wɔbɛfrɛ	-6696
▁wɔkɔfaa	-6697
▁ɔgyefoɔ	-6698
▁萬軍之耶和華云	-6699
▁aduɔkron	-6700
▁bɛgyinaa	-6701
▁ɔnokwafo	-6702
▁monhwehwɛ	-6703
▁perisifoɔ	-6704
▁serubabel	-6705
▁ɔkyekyeree	-6706
▁兩	-6707
▁刃	-6708
▁北	-6709
▁國	-6710
▁城	-6711
▁富	-6712
▁布	-6713
▁弗	-6714
▁歲	-6715
▁河	-6716
▁牧	-6717
▁祝	-6718
▁禱	-6719
▁蠢	-6720
▁製	-6721
三千	-6722
之樹	-6723
之謀	-6724
之酒	-6725
五年	-6726
亦有	-6727
享壽	-6728
人手	-6729
仆於	-6730
以弗	-6731
俄米	-6732
信乎	-6733
傾圮	-6734
其主	-6735
其位	-6736
其血	-6737
出入	-6738
可食	-6739
嫠婦	-6740
嬰孩	-6741
子乎	-6742
尚有	-6743
尤甚	-6744
彼此	-6745
懇求	-6746
我怒	-6747
所得	-6748
所遇	-6749
拜之	-6750
探雅	-6751
斥責	-6752
昆蟲	-6753
曾孫	-6754
有言	-6755
未人	-6756
此而	-6757
武士	-6758
死矣	-6759
殷勤	-6760
求爾	-6761
海濱	-6762
狥欲	-6763
珥子	-6764
瑪哈	-6765
由彼	-6766
男子	-6767
終日	-6768
結果	-6769
維何	-6770
維倍	-6771
而成	-6772
蔓延	-6773
西萊	-6774
詣爾	-6775
該亞	-6776
諸神	-6777
謙卑	-6778
譜系	-6779
貿易	-6780
賜我	-6781
農夫	-6782
醇醪	-6783
食物	-6784
bad	-6785
bor	-6786
hor	-6787
noa	-6788
sto	-6789
tea	-6790
▁亞米	-6791
▁亦非	-6792
▁來自	-6793
▁免我	-6794
▁呼曰	-6795
▁哈拿	-6796
▁啞𠵘	-6797
▁在天	-6798
▁將至	-6799
▁彼若	-6800
▁我言	-6801
▁撒迦	-6802
▁斯乃	-6803
▁晝夜	-6804
▁無所	-6805
▁爾手	-6806
▁眾遂	-6807
▁示巴	-6808
▁致我	-6809
▁若不	-6810
▁若然	-6811
▁誰能	-6812
上帝而	-6813
之牧伯	-6814
二十肘	-6815
受膏者	-6816
名之曰	-6817
就耶穌	-6818
於王前	-6819
殺人者	-6820
為我名	-6821
百夫長	-6822
約但河	-6823
致之死	-6824
蛾摩拉	-6825
血氣者	-6826
迦南地	-6827
遵行之	-6828
borɔ	-6829
dɛre	-6830
ehas	-6831
neen	-6832
toni	-6833
wuiɛ	-6834
yeyɛ	-6835
▁hem	-6836
▁rab	-6837
▁tui	-6838
▁ɛna	-6839
▁但以理	-6840
▁其母名	-6841
▁末底改	-6842
▁西布倫	-6843
子及昆弟	-6844
拿弗他利	-6845
皂莢木作	-6846
約書亞曰	-6847
firii	-6848
mmire	-6849
omora	-6850
▁abue	-6851
▁akan	-6852
▁hela	-6853
▁honi	-6854
▁mana	-6855
▁mono	-6856
▁ntua	-6857
▁odum	-6858
▁oduu	-6859
▁ohim	-6860
▁pele	-6861
▁sere	-6862
▁watu	-6863
▁wonn	-6864
▁wubu	-6865
▁wudi	-6866
▁ɔkum	-6867
▁ɔnte	-6868
▁ɛkyɛ	-6869
▁以利亞撒	-6870
▁我指己生	-6871
▁歷世弗替	-6872
▁爾之上帝	-6873
▁爾其聽之	-6874
▁耶何耶大	-6875
▁耶和華乃	-6876
上耶路撒冷	-6877
與以色列眾	-6878
kraman	-6879
kurani	-6880
▁akutu	-6881
▁anyan	-6882
▁apini	-6883
▁asina	-6884
▁beree	-6885
▁duraa	-6886
▁ekron	-6887
▁makir	-6888
▁memmɛ	-6889
▁moahu	-6890
▁monna	-6891
▁mɛsan	-6892
▁mɛtwe	-6893
▁nabal	-6894
▁nabot	-6895
▁rehwɛ	-6896
▁rimon	-6897
▁sanku	-6898
▁tenee	-6899
▁tutuu	-6900
▁woahu	-6901
▁wɔsan	-6902
▁ɔnhyɛ	-6903
▁ɔnnya	-6904
▁ɛsene	-6905
hwehwɛɛ	-6906
▁ahotua	-6907
▁atumfo	-6908
▁ayamye	-6909
▁gomora	-6910
▁gyefoɔ	-6911
▁mennim	-6912
▁mikyia	-6913
▁mmfiri	-6914
▁monnya	-6915
▁nkoraa	-6916
▁ntease	-6917
▁ogyina	-6918
▁seraia	-6919
▁seruia	-6920
▁tempɔn	-6921
▁wannya	-6922
▁wobɛdi	-6923
▁wogyee	-6924
▁wɔbɛbɔ	-6925
▁wɔmmra	-6926
▁wɔnsom	-6927
▁wɔsoma	-6928
▁ɔhonam	-6929
▁自二十歲以上	-6930
尼八子耶羅波安	-6931
kyerɛfoɔ	-6932
kyerɛmma	-6933
▁adwenem	-6934
▁akunafo	-6935
▁akyɛdeɛ	-6936
▁aweretɔ	-6937
▁awisiaa	-6938
▁denneen	-6939
▁hewifoɔ	-6940
▁maaseia	-6941
▁mmonhwa	-6942
▁moabfoɔ	-6943
▁mpempem	-6944
▁pinehas	-6945
▁titiriw	-6946
▁wobenya	-6947
▁wɔadane	-6948
▁wɔafira	-6949
▁wɔannye	-6950
▁wɔremfa	-6951
▁爾其頌美耶和華	-6952
▁adwumfoɔ	-6953
▁mmaninyɛ	-6954
▁nnawɔtwe	-6955
▁nokwasɛm	-6956
▁wobɛtumi	-6957
▁wɔanhunu	-6958
▁adaduanan	-6959
▁akokoduru	-6960
▁wɔkunkumm	-6961
▁ɔsorosoro	-6962
▁adwumayɛfo	-6963
▁nhunumufoɔ	-6964
▁sukyerɛmma	-6965
▁momonotofoɔ	-6966
gi	-6967
nt	-6968
▁包	-6969
▁右	-6970
▁妄	-6971
▁密	-6972
▁己	-6973
▁徧	-6974
▁捫	-6975
▁晝	-6976
▁月	-6977
▁異	-6978
▁移	-6979
▁縱	-6980
▁贖	-6981
▁釘	-6982
▁驕	-6983
不及	-6984
之惡	-6985
之母	-6986
之矣	-6987
之邦	-6988
亞拿	-6989
人為	-6990
仇敵	-6991
以戰	-6992
以手	-6993
偃臥	-6994
先見	-6995
共與	-6996
出言	-6997
利沙	-6998
加之	-6999
受造	-7000
呪詛	-7001
四人	-7002
四千	-7003
土地	-7004
垂顧	-7005
基拉	-7006
多日	-7007
奴隸	-7008
巴沙	-7009
希臘	-7010
年之	-7011
律書	-7012
憂戚	-7013
我將	-7014
所聞	-7015
接之	-7016
摩太	-7017
敬畏	-7018
斯言	-7019
旋歸	-7020
有罪	-7021
欣然	-7022
污衊	-7023
洗人	-7024
洪水	-7025
澣衣	-7026
烈火	-7027
無子	-7028
示巴	-7029
祭品	-7030
細亞	-7031
罪愆	-7032
而坐	-7033
而自	-7034
而誇	-7035
而遁	-7036
耶戶	-7037
至而	-7038
艱苦	-7039
英武	-7040
處之	-7041
解之	-7042
詛之	-7043
語之	-7044
議會	-7045
谷中	-7046
責之	-7047
蹂躪	-7048
迦密	-7049
迦巴	-7050
追襲	-7051
途間	-7052
雅斤	-7053
革倫	-7054
革拉	-7055
香品	-7056
ber	-7057
lat	-7058
nii	-7059
sib	-7060
suw	-7061
weɛ	-7062
▁al	-7063
▁一為	-7064
▁亞實	-7065
▁何其	-7066
▁則見	-7067
▁士子	-7068
▁子女	-7069
▁宣告	-7070
▁巴蘭	-7071
▁必歸	-7072
▁惟此	-7073
▁所有	-7074
▁於彼	-7075
▁為人	-7076
▁爾今	-7077
▁爾目	-7078
▁答曰	-7079
▁約但	-7080
▁維彼	-7081
▁緣此	-7082
▁自此	-7083
▁若爾	-7084
▁豈能	-7085
▁遣使	-7086
之於壇	-7087
之遺民	-7088
亞拉巴	-7089
僕摩西	-7090
埃及地	-7091
為永例	-7092
猶大及	-7093
羅巴伯	-7094
brɛɛ	-7095
enam	-7096
fere	-7097
kana	-7098
kwan	-7099
pepa	-7100
uano	-7101
ɛmma	-7102
▁gua	-7103
▁ise	-7104
▁mae	-7105
▁mag	-7106
▁owi	-7107
▁pem	-7108
▁tɛk	-7109
▁wuu	-7110
▁yai	-7111
▁yeh	-7112
▁我呼籲	-7113
▁烏西雅	-7114
▁祭司必	-7115
可憎之事	-7116
聖所權衡	-7117
ammrɛ	-7118
dwuma	-7119
▁ahim	-7120
▁akwa	-7121
▁amfi	-7122
▁ante	-7123
▁besi	-7124
▁eser	-7125
▁guiɛ	-7126
▁gyei	-7127
▁kyɛm	-7128
▁kyɛn	-7129
▁kɔko	-7130
▁lasa	-7131
▁masa	-7132
▁nngu	-7133
▁nsɛe	-7134
▁sefa	-7135
▁siee	-7136
▁soba	-7137
▁tane	-7138
▁twea	-7139
▁tɔnn	-7140
▁yosa	-7141
▁ɔbɛn	-7142
▁ɔdaa	-7143
▁ɔnsi	-7144
▁ɔteɛ	-7145
▁ɔyɛe	-7146
▁亞撒利雅	-7147
▁便雅憫人	-7148
▁即耶和華	-7149
▁所羅門王	-7150
▁有如今日	-7151
▁耶和華將	-7152
埃及王法老	-7153
應而語之曰	-7154
於以色列中	-7155
稱謝耶和華	-7156
hyɛnee	-7157
tiokia	-7158
▁anisɔ	-7159
▁antie	-7160
▁ebunu	-7161
▁eliab	-7162
▁fitii	-7163
▁hiram	-7164
▁hooyɛ	-7165
▁kokom	-7166
▁manfo	-7167
▁mmoro	-7168
▁mmuae	-7169
▁monte	-7170
▁naomi	-7171
▁nkeka	-7172
▁nnuru	-7173
▁ntɔte	-7174
▁ntɛtɛ	-7175
▁oguan	-7176
▁otumi	-7177
▁seyie	-7178
▁silas	-7179
▁woakɔ	-7180
▁wotwa	-7181
▁wɔnom	-7182
▁wɔtwa	-7183
▁ɔboda	-7184
▁ɔdefo	-7185
▁以皂莢木作	-7186
▁在耶和華前	-7187
嫩之子約書亞	-7188
祭司以利亞撒	-7189
行耶和華所惡	-7190
▁abɔdeɛ	-7191
▁ahahan	-7192
▁atirim	-7193
▁ayamyi	-7194
▁daadaa	-7195
▁elkana	-7196
▁hesron	-7197
▁mmaran	-7198
▁mmuano	-7199
▁mommrɛ	-7200
▁monsom	-7201
▁naaman	-7202
▁nyanee	-7203
▁rennya	-7204
▁woanya	-7205
▁wɔafom	-7206
▁wɔanni	-7207
▁wɔkɔka	-7208
▁wɔmmfa	-7209
▁wɔwiee	-7210
▁yɛanya	-7211
▁ɔbɛgye	-7212
▁俱載於以色列	-7213
▁循其室家宗族	-7214
爾之上帝耶和華	-7215
▁anantwi	-7216
▁demmire	-7217
▁kotokuo	-7218
▁nokwafo	-7219
▁ntwedeɛ	-7220
▁twitwaa	-7221
▁tɛkrɛma	-7222
▁wontumi	-7223
▁wɔadome	-7224
▁wɔahyia	-7225
▁wɔdwane	-7226
▁adansefo	-7227
▁ahopopoɔ	-7228
▁antiokia	-7229
▁hebrifoɔ	-7230
▁mekyerɛw	-7231
▁atemmusɛm	-7232
▁denneenen	-7233
▁dummiɛnsa	-7234
▁merentumi	-7235
▁ahoɔdenfoɔ	-7236
▁basabasayɛ	-7237
▁ahohiahiafoɔ	-7238
▁保	-7239
▁匿	-7240
▁嗣	-7241
▁末	-7242
▁核	-7243
▁止	-7244
▁畏	-7245
▁竟	-7246
▁膏	-7247
▁舌	-7248
▁覆	-7249
一心	-7250
一處	-7251
七千	-7252
之能	-7253
之脂	-7254
之輩	-7255
九年	-7256
亞嫩	-7257
亞設	-7258
偏於	-7259
入城	-7260
公平	-7261
其室	-7262
其母	-7263
加以	-7264
動搖	-7265
勤勞	-7266
向爾	-7267
器之	-7268
在焉	-7269
垂念	-7270
基甸	-7271
塵埃	-7272
大而	-7273
女也	-7274
存日	-7275
宣告	-7276
尼微	-7277
山岡	-7278
山巔	-7279
徒然	-7280
得見	-7281
心者	-7282
恆存	-7283
恐惶	-7284
所求	-7285
所獲	-7286
提阿	-7287
提雅	-7288
擊爾	-7289
於後	-7290
時之	-7291
有云	-7292
有力	-7293
權以	-7294
歸其	-7295
殲滅	-7296
永不	-7297
求之	-7298
汲水	-7299
深淵	-7300
濯身	-7301
災禍	-7302
烏有	-7303
無幾	-7304
無異	-7305
父之	-7306
發聲	-7307
相議	-7308
瞻望	-7309
石榴	-7310
稅吏	-7311
窮乏	-7312
羣臣	-7313
耆老	-7314
聖名	-7315
至彼	-7316
與王	-7317
草場	-7318
萬國	-7319
虛誕	-7320
行而	-7321
裸體	-7322
訓詞	-7323
訓誨	-7324
誓曰	-7325
諸惡	-7326
足下	-7327
車騎	-7328
醫之	-7329
高處	-7330
fet	-7331
imu	-7332
pɔw	-7333
tot	-7334
▁ru	-7335
▁不從	-7336
▁亦當	-7337
▁今在	-7338
▁依爾	-7339
▁其目	-7340
▁勝於	-7341
▁即在	-7342
▁吹角	-7343
▁如此	-7344
▁容我	-7345
▁將有	-7346
▁彼在	-7347
▁彼此	-7348
▁我何	-7349
▁我往	-7350
▁推羅	-7351
▁昔在	-7352
▁未有	-7353
▁此即	-7354
▁死者	-7355
▁爾已	-7356
▁瑪他	-7357
▁祈禱	-7358
▁而自	-7359
▁耶利	-7360
▁自東	-7361
▁致其	-7362
▁蓋主	-7363
▁非以	-7364
▁願我	-7365
伊利亞	-7366
其所言	-7367
問爾安	-7368
在其中	-7369
在爾前	-7370
於爾者	-7371
於祭司	-7372
為我儕	-7373
爾所言	-7374
猶大家	-7375
生子女	-7376
至埃及	-7377
西布倫	-7378
誠告爾	-7379
dwom	-7380
kame	-7381
sera	-7382
srɛɛ	-7383
taim	-7384
tiel	-7385
tuiɛ	-7386
yire	-7387
▁bat	-7388
▁fra	-7389
▁hor	-7390
▁kɔm	-7391
▁nil	-7392
▁wɔp	-7393
▁亞述王	-7394
▁為爾所	-7395
▁獻燔祭	-7396
▁約西亞	-7397
我之上帝	-7398
知耶和華	-7399
donia	-7400
gyesɛ	-7401
perna	-7402
wiraa	-7403
wosow	-7404
▁aguo	-7405
▁amos	-7406
▁apin	-7407
▁gyeɛ	-7408
▁kɔfa	-7409
▁ntra	-7410
▁piti	-7411
▁sawa	-7412
▁wawu	-7413
▁womm	-7414
▁wotu	-7415
▁wɔda	-7416
▁yedi	-7417
▁ɛhye	-7418
▁以為馨香	-7419
▁我必使爾	-7420
以色列長老	-7421
為以色列王	-7422
sunsum	-7423
▁afono	-7424
▁agyae	-7425
▁ahofa	-7426
▁bɛsii	-7427
▁guguu	-7428
▁hasor	-7429
▁horow	-7430
▁manka	-7431
▁matwa	-7432
▁mempɛ	-7433
▁menie	-7434
▁mihui	-7435
▁moate	-7436
▁mpini	-7437
▁nkura	-7438
▁nkyɛm	-7439
▁obehu	-7440
▁sukot	-7441
▁timna	-7442
▁wieeɛ	-7443
▁wusiw	-7444
▁wɔbɛn	-7445
▁wɔgye	-7446
▁wɔtɔn	-7447
▁yɛahu	-7448
▁yɛbea	-7449
▁yɛnni	-7450
▁ɔsram	-7451
▁ɔtena	-7452
▁我誠誠告爾	-7453
▁耶穌應之曰	-7454
pernaum	-7455
▁abrane	-7456
▁aburoo	-7457
▁anatot	-7458
▁hasael	-7459
▁hetini	-7460
▁itamar	-7461
▁mobɛka	-7462
▁nhyiam	-7463
▁nnuaba	-7464
▁nsunoa	-7465
▁nwanwa	-7466
▁sankuo	-7467
▁teefoɔ	-7468
▁worekɔ	-7469
▁wɔahwe	-7470
▁wɔkasa	-7471
▁wɔkeka	-7472
▁ɔbɛsɛe	-7473
▁ɔdefoɔ	-7474
▁ɔdwane	-7475
▁ɔkɔdeɛ	-7476
▁ɔmfiri	-7477
▁ɔremma	-7478
▁我指己生而誓	-7479
▁與其子及昆弟	-7480
▁menhunu	-7481
▁nhyɛsoɔ	-7482
▁rentena	-7483
▁wuranom	-7484
▁wɔatena	-7485
▁wɔntena	-7486
▁wɔrenhu	-7487
▁ɔbɛhunu	-7488
▁abansoro	-7489
▁abarimaa	-7490
▁aboboano	-7491
▁abusuafo	-7492
▁ahinanan	-7493
▁mubetumi	-7494
▁ntamadan	-7495
▁ɔtemmufo	-7496
▁adwemmɔne	-7497
▁agyimisɛm	-7498
▁akasakasa	-7499
▁amradofoɔ	-7500
▁kapernaum	-7501
▁makedonia	-7502
▁wɔasiesie	-7503
▁wɔrentumi	-7504
▁與其子及昆弟十二人	-7505
▁mmabaaberɛ	-7506
▁odwamamfoɔ	-7507
▁ankɔbeahene	-7508
kɛ	-7509
nn	-7510
▁似	-7511
▁全	-7512
▁屈	-7513
▁急	-7514
▁恃	-7515
▁掠	-7516
▁朔	-7517
▁毘	-7518
▁牝	-7519
▁羊	-7520
▁胡	-7521
▁處	-7522
▁裂	-7523
▁超	-7524
▁逐	-7525
▁違	-7526
▁郇	-7527
▁銅	-7528
▁隱	-7529
▁麥	-7530
三萬	-7531
中諸	-7532
乃以	-7533
之壇	-7534
之年	-7535
之杖	-7536
之果	-7537
之肉	-7538
人於	-7539
人而	-7540
仁愛	-7541
以刃	-7542
伏於	-7543
入室	-7544
六年	-7545
其女	-7546
其怒	-7547
其目	-7548
其義	-7549
割禮	-7550
取一	-7551
各人	-7552
同室	-7553
向之	-7554
商賈	-7555
問安	-7556
塵土	-7557
大河	-7558
奧妙	-7559
如火	-7560
妻孥	-7561
威嚴	-7562
威烈	-7563
婦女	-7564
孤寡	-7565
孩提	-7566
孺子	-7567
巴底	-7568
彼所	-7569
必為	-7570
我罪	-7571
我言	-7572
所悅	-7573
所選	-7574
抱愧	-7575
按手	-7576
撚綫	-7577
救我	-7578
斯崙	-7579
於獄	-7580
旁立	-7581
木石	-7582
棄爾	-7583
榮耀	-7584
殺爾	-7585
毀滅	-7586
為妻	-7587
爾出	-7588
狂傲	-7589
生亞	-7590
由此	-7591
異能	-7592
癩疾	-7593
盟約	-7594
破壞	-7595
經云	-7596
而為	-7597
臨我	-7598
與民	-7599
蒺藜	-7600
虛妄	-7601
虛無	-7602
西緬	-7603
詣我	-7604
該雅	-7605
豈不	-7606
辯論	-7607
遂起	-7608
邪慝	-7609
野之	-7610
鑒察	-7611
閽者	-7612
鞫之	-7613
顯著	-7614
骨肉	-7615
高舉	-7616
dee	-7617
dod	-7618
eeɛ	-7619
fer	-7620
kel	-7621
mai	-7622
num	-7623
taw	-7624
tɛɛ	-7625
▁ny	-7626
▁三日	-7627
▁不遵	-7628
▁令人	-7629
▁俱必	-7630
▁其事	-7631
▁其日	-7632
▁利巴	-7633
▁勿與	-7634
▁命名	-7635
▁因此	-7636
▁夙興	-7637
▁奉事	-7638
▁恐其	-7639
▁我觀	-7640
▁或作	-7641
▁拉末	-7642
▁掣籤	-7643
▁撒但	-7644
▁於此	-7645
▁歌頌	-7646
▁毀其	-7647
▁父歟	-7648
▁爾奚	-7649
▁王命	-7650
▁王歟	-7651
▁王與	-7652
▁米迦	-7653
▁耶西	-7654
▁西頓	-7655
加利亞	-7656
十有二	-7657
四千人	-7658
在爾中	-7659
外無他	-7660
所有者	-7661
拯救之	-7662
於其身	-7663
於其首	-7664
有福兮	-7665
為贖罪	-7666
爾之言	-7667
爾兄弟	-7668
犯之罪	-7669
約瑟曰	-7670
與之偕	-7671
與爾偕	-7672
葡萄樹	-7673
謂眾曰	-7674
daia	-7675
fɛre	-7676
hwɛɛ	-7677
kumm	-7678
rini	-7679
tiaa	-7680
tuma	-7681
wɛre	-7682
▁aro	-7683
▁haa	-7684
▁kon	-7685
▁mik	-7686
▁mmm	-7687
▁mua	-7688
▁ner	-7689
▁oba	-7690
▁sea	-7691
▁ɔku	-7692
▁ɔwɛ	-7693
▁上帝必	-7694
▁亞瑪力	-7695
▁亞瑪謝	-7696
▁以薩迦	-7697
▁千夫長	-7698
▁在彼有	-7699
▁埃及人	-7700
▁我今日	-7701
▁故爾當	-7702
▁為素祭	-7703
▁無論何	-7704
▁祭司長	-7705
三分之一	-7706
之利未人	-7707
亞比亞他	-7708
以色列民	-7709
剛愎厥心	-7710
子約哈難	-7711
子約拿單	-7712
於上帝之	-7713
耶和華藉	-7714
deser	-7715
redee	-7716
sisii	-7717
sunti	-7718
tofel	-7719
▁abaw	-7720
▁akɔn	-7721
▁asoa	-7722
▁awuo	-7723
▁bubu	-7724
▁eden	-7725
▁elie	-7726
▁hwam	-7727
▁hyew	-7728
▁hyɛe	-7729
▁kyɛɛ	-7730
▁metu	-7731
▁misu	-7732
▁moam	-7733
▁mobɔ	-7734
▁mone	-7735
▁mpin	-7736
▁nohɔ	-7737
▁otie	-7738
▁wɔsu	-7739
▁yɛnn	-7740
▁ɛhwɛ	-7741
▁ɛsɛn	-7742
▁以利沙曰	-7743
▁撒瑪利亞	-7744
▁歷四十年	-7745
▁比利洗人	-7746
▁耶穌應曰	-7747
▁迄於今日	-7748
和油之細麵	-7749
居耶路撒冷	-7750
撚綫細枲布	-7751
kenkan	-7752
kumfoɔ	-7753
panyin	-7754
▁aduro	-7755
▁afifi	-7756
▁ahina	-7757
▁akokɔ	-7758
▁asdod	-7759
▁awowa	-7760
▁babea	-7761
▁botae	-7762
▁bɛhwe	-7763
▁bɛsom	-7764
▁damoa	-7765
▁didii	-7766
▁etire	-7767
▁fomfa	-7768
▁horon	-7769
▁ketee	-7770
▁koduu	-7771
▁kɔdii	-7772
▁mabrɛ	-7773
▁mahwɛ	-7774
▁mamfa	-7775
▁mamma	-7776
▁melki	-7777
▁nisuo	-7778
▁nnane	-7779
▁ntini	-7780
▁nware	-7781
▁obuaa	-7782
▁susuo	-7783
▁teman	-7784
▁wɔasi	-7785
▁wɔtie	-7786
▁yegye	-7787
▁yiyii	-7788
▁yoram	-7789
▁ɔbuaa	-7790
▁ɔnhwɛ	-7791
▁ɔreyɛ	-7792
▁ɔtene	-7793
siesiee	-7794
▁hoahoa	-7795
▁lasaro	-7796
▁mpennu	-7797
▁nkatan	-7798
▁nnɔbae	-7799
▁nnɔɔso	-7800
▁nsania	-7801
▁nsiane	-7802
▁nsonoe	-7803
▁redidi	-7804
▁wasɔre	-7805
▁wogyaa	-7806
▁wɔamma	-7807
▁wɔtwaa	-7808
▁yearim	-7809
▁adebɔne	-7810
▁aforoeɛ	-7811
▁akwantu	-7812
▁ayarefo	-7813
▁bɔgyesɛ	-7814
▁ketewaa	-7815
▁megyina	-7816
▁merenyɛ	-7817
▁mmatiri	-7818
▁mmobɔeɛ	-7819
▁mubenya	-7820
▁nsramma	-7821
▁nteaseɛ	-7822
▁wɔdɔɔso	-7823
▁ɔkyerɛɛ	-7824
▁adwammaa	-7825
▁ahitofel	-7826
▁kaesarea	-7827
▁nteredee	-7828
▁obubuafo	-7829
▁wasiesie	-7830
▁yehoahas	-7831
▁adansefoɔ	-7832
▁adwadifoɔ	-7833
▁aguamammɔ	-7834
▁agyinatuo	-7835
▁ahyiradeɛ	-7836
▁atuatefoɔ	-7837
▁hadadeser	-7838
▁nkyekyere	-7839
▁nuabarima	-7840
▁torobɛnto	-7841
▁twetiatwa	-7842
▁萬軍之耶和華言之矣	-7843
▁mmɔborɔfoɔ	-7844
▁kyerɛkyerɛɛ	-7845
▁增	-7846
▁左	-7847
▁收	-7848
▁斫	-7849
▁極	-7850
▁沿	-7851
▁清	-7852
▁潔	-7853
▁燃	-7854
▁碎	-7855
▁積	-7856
▁簡	-7857
▁繼	-7858
▁葬	-7859
▁許	-7860
▁譬	-7861
▁逃	-7862
▁釋	-7863
▁野	-7864
▁難	-7865
不勝	-7866
不死	-7867
不足	-7868
之來	-7869
之像	-7870
之內	-7871
之基	-7872
之恩	-7873
之族	-7874
之羔	-7875
之餘	-7876
亞斯	-7877
亦為	-7878
以誓	-7879
伊拉	-7880
何烈	-7881
何與	-7882
作惡	-7883
使其	-7884
入而	-7885
八十	-7886
則曰	-7887
劬勞	-7888
去之	-7889
受其	-7890
可拉	-7891
四萬	-7892
土產	-7893
壽高	-7894
多弗	-7895
子也	-7896
完人	-7897
家之	-7898
專心	-7899
尚存	-7900
尚未	-7901
幕中	-7902
幼稚	-7903
幾何	-7904
強者	-7905
影像	-7906
彼之	-7907
思維	-7908
我魂	-7909
所在	-7910
手執	-7911
拉伯	-7912
拿伯	-7913
拿八	-7914
接我	-7915
撒路	-7916
敗亡	-7917
於心	-7918
暴虐	-7919
有司	-7920
有數	-7921
服之	-7922
望者	-7923
此邑	-7924
殺人	-7925
洗別	-7926
淫婦	-7927
溫柔	-7928
為主	-7929
為惡	-7930
為長	-7931
父所	-7932
爾知	-7933
爾罪	-7934
獲福	-7935
生於	-7936
疾趨	-7937
相同	-7938
相愛	-7939
眾人	-7940
約拿	-7941
而無	-7942
耶琳	-7943
自卑	-7944
至西	-7945
致死	-7946
荒寂	-7947
萬事	-7948
行其	-7949
行是	-7950
行義	-7951
言時	-7952
誑言	-7953
諸器	-7954
諸罪	-7955
識我	-7956
轉離	-7957
追之	-7958
通達	-7959
雅比	-7960
離棄	-7961
高者	-7962
aas	-7963
dad	-7964
dai	-7965
dak	-7966
fua	-7967
mot	-7968
tef	-7969
▁eg	-7970
▁im	-7971
▁一心	-7972
▁一日	-7973
▁不至	-7974
▁且有	-7975
▁乃在	-7976
▁乃我	-7977
▁亞薩	-7978
▁亞設	-7979
▁亦未	-7980
▁人將	-7981
▁以信	-7982
▁使為	-7983
▁其妻	-7984
▁其柱	-7985
▁其言	-7986
▁則勿	-7987
▁勿因	-7988
▁勿為	-7989
▁否則	-7990
▁呼籲	-7991
▁守其	-7992
▁巴勒	-7993
▁彼曾	-7994
▁必絕	-7995
▁我口	-7996
▁我敵	-7997
▁我謂	-7998
▁撒督	-7999
▁爾有	-8000
▁爾祖	-8001
▁爾能	-8002
▁爾行	-8003
▁獻祭	-8004
▁米甸	-8005
▁蓋人	-8006
之所為	-8007
亞捫人	-8008
亞比篩	-8009
亞蘭王	-8010
以此言	-8011
其兄弟	-8012
地之人	-8013
埃及之	-8014
巴拿巴	-8015
希勒家	-8016
我儕之	-8017
於法老	-8018
爾所行	-8019
稱謝爾	-8020
而來者	-8021
而食之	-8022
預言曰	-8023
hema	-8024
mmoɔ	-8025
nane	-8026
unom	-8027
▁ago	-8028
▁twi	-8029
▁tɔn	-8030
▁yan	-8031
▁yok	-8032
▁ɔta	-8033
▁年二十	-8034
▁愛友乎	-8035
▁故我儕	-8036
▁有一人	-8037
▁比拿雅	-8038
▁為人所	-8039
▁西底家	-8040
▁豈不知	-8041
以色列地	-8042
出埃及時	-8043
利未人之	-8044
我主我王	-8045
所羅門王	-8046
為業之地	-8047
無花果樹	-8048
籲耶和華	-8049
antom	-8050
emfam	-8051
kyene	-8052
potam	-8053
▁abon	-8054
▁ampɛ	-8055
▁bebu	-8056
▁dwan	-8057
▁gyae	-8058
▁mehu	-8059
▁mmfi	-8060
▁mɛbu	-8061
▁nsoa	-8062
▁ntin	-8063
▁omri	-8064
▁otuu	-8065
▁stef	-8066
▁susa	-8067
▁wann	-8068
▁woyi	-8069
▁yoel	-8070
▁yɛda	-8071
▁ɔdom	-8072
▁ɔmmu	-8073
▁ɔmpɛ	-8074
▁ɔsɛn	-8075
▁ɛhia	-8076
▁亞摩利人	-8077
▁將至何時	-8078
▁必蒙不潔	-8079
▁撒母耳曰	-8080
▁與其昆弟	-8081
▁著為永例	-8082
先知以賽亞	-8083
入耶和華室	-8084
猶太人之王	-8085
獻於耶和華	-8086
耶和華所悅	-8087
fifiri	-8088
sianka	-8089
▁adwin	-8090
▁afire	-8091
▁annya	-8092
▁bubuu	-8093
▁efeso	-8094
▁hagar	-8095
▁koguu	-8096
▁libna	-8097
▁magye	-8098
▁masɛe	-8099
▁medii	-8100
▁mikal	-8101
▁mmɛyɛ	-8102
▁mpete	-8103
▁mpuna	-8104
▁mɛhwɛ	-8105
▁mɛnya	-8106
▁nadab	-8107
▁nahor	-8108
▁nkari	-8109
▁nsisi	-8110
▁nsɔre	-8111
▁nwono	-8112
▁remmɔ	-8113
▁renwu	-8114
▁srade	-8115
▁suroo	-8116
▁teɛɛm	-8117
▁tirsa	-8118
▁totoo	-8119
▁woabɔ	-8120
▁woate	-8121
▁wɔtan	-8122
▁ɔbɛbɔ	-8123
▁ɔhyee	-8124
▁ɛbɛka	-8125
▁及耶路撒冷	-8126
▁在撒瑪利亞	-8127
potamia	-8128
wintwam	-8129
▁afurum	-8130
▁atalia	-8131
▁boaboa	-8132
▁bɛkasa	-8133
▁bɛyera	-8134
▁dwanee	-8135
▁gyinae	-8136
▁hemmaa	-8137
▁hyɛnee	-8138
▁isebel	-8139
▁mmaawa	-8140
▁mmuaeɛ	-8141
▁mobɛdi	-8142
▁mommoa	-8143
▁mpemha	-8144
▁nkoguo	-8145
▁nkutoo	-8146
▁obadia	-8147
▁pameeɛ	-8148
▁rebɛko	-8149
▁sisera	-8150
▁twenee	-8151
▁twitwa	-8152
▁wotumi	-8153
▁wɔnkum	-8154
▁wɔreba	-8155
▁wɔtwee	-8156
▁ɔtease	-8157
猶大及耶路撒冷	-8158
▁abohuro	-8159
▁akunini	-8160
▁akurofo	-8161
▁akɔkoaa	-8162
▁asaseta	-8163
▁atempɔn	-8164
▁atumfoɔ	-8165
▁bɛtenaa	-8166
▁kwadwom	-8167
▁mekamfo	-8168
▁monhyia	-8169
▁netania	-8170
▁susutoa	-8171
▁wɔabubu	-8172
▁wɔbɛgye	-8173
▁wɔkamfo	-8174
▁ɔhyiraa	-8175
▁moabhene	-8176
▁nkatasoɔ	-8177
▁nkonimdi	-8178
▁nkɔkoraa	-8179
▁wobetumi	-8180
▁ɔyaredɔm	-8181
antankoraa	-8182
▁abirekyie	-8183
▁asinasini	-8184
▁morentumi	-8185
▁mpiakyire	-8186
▁nkɔtɔkorɔ	-8187
▁俱載於以色列列王紀	-8188
▁巴比倫王尼布甲尼撒	-8189
▁ahyehyɛdeɛ	-8190
▁wɔrehwehwɛ	-8191
▁ɔnyinsɛnee	-8192
▁abosonsomfo	-8193
▁mesopotamia	-8194
▁sorɔnsorɔnbea	-8195
lu	-8196
▁圍	-8197
▁座	-8198
▁憾	-8199
▁折	-8200
▁曳	-8201
▁直	-8202
▁神	-8203
▁竊	-8204
▁築	-8205
▁美	-8206
▁老	-8207
▁託	-8208
▁記	-8209
▁車	-8210
▁道	-8211
▁院	-8212
▁驢	-8213
一欣	-8214
三次	-8215
不明	-8216
不至	-8217
不虔	-8218
不食	-8219
之使	-8220
之信	-8221
之口	-8222
之墓	-8223
之怒	-8224
之權	-8225
之院	-8226
之馬	-8227
乏音	-8228
九十	-8229
亞薩	-8230
以銀	-8231
何事	-8232
入我	-8233
冠冕	-8234
列陳	-8235
初實	-8236
前往	-8237
南方	-8238
厥祖	-8239
反之	-8240
古實	-8241
咸至	-8242
哀悼	-8243
哈薛	-8244
問其	-8245
嗤笑	-8246
四日	-8247
回意	-8248
地者	-8249
報復	-8250
士都	-8251
女曰	-8252
妻室	-8253
姍笑	-8254
室中	-8255
將有	-8256
屬我	-8257
山之	-8258
已至	-8259
廢之	-8260
往來	-8261
恆忍	-8262
成潔	-8263
我來	-8264
戒之	-8265
拉人	-8266
搖祭	-8267
敗壞	-8268
敵手	-8269
於父	-8270
暗嫩	-8271
榮之	-8272
歷世	-8273
死於	-8274
污鬼	-8275
沙撒	-8276
為首	-8277
爾矣	-8278
爾聲	-8279
爾足	-8280
牡牛	-8281
狂風	-8282
王命	-8283
甚眾	-8284
用之	-8285
疏割	-8286
知此	-8287
禦之	-8288
立而	-8289
經營	-8290
經行	-8291
羅珥	-8292
羅馬	-8293
者同	-8294
者見	-8295
而臥	-8296
而被	-8297
而降	-8298
聖服	-8299
聖神	-8300
聞我	-8301
膏之	-8302
臨產	-8303
自始	-8304
薄暮	-8305
該隱	-8306
諭爾	-8307
識爾	-8308
貧民	-8309
購之	-8310
起之	-8311
隙地	-8312
顚仆	-8313
高臺	-8314
鼓琴	-8315
fuw	-8316
hab	-8317
kom	-8318
mpɔ	-8319
pie	-8320
wuu	-8321
▁七月	-8322
▁且行	-8323
▁中有	-8324
▁乃如	-8325
▁乃於	-8326
▁亦勿	-8327
▁何也	-8328
▁修葺	-8329
▁其邑	-8330
▁利亞	-8331
▁勿畏	-8332
▁嗣後	-8333
▁大利	-8334
▁大地	-8335
▁如以	-8336
▁導我	-8337
▁待我	-8338
▁悉以	-8339
▁患難	-8340
▁我立	-8341
▁拿單	-8342
▁挪亞	-8343
▁撒拉	-8344
▁故主	-8345
▁次日	-8346
▁此為	-8347
▁波斯	-8348
▁為王	-8349
▁爾子	-8350
▁牛羊	-8351
▁終日	-8352
▁群眾	-8353
▁自我	-8354
▁至今	-8355
▁諸天	-8356
▁豈可	-8357
▁迨其	-8358
▁遂取	-8359
▁隨意	-8360
▁頌讚	-8361
上上帝	-8362
之室家	-8363
乳與蜜	-8364
五十肘	-8365
人耶穌	-8366
以精金	-8367
以薩迦	-8368
傳福音	-8369
別以東	-8370
受割禮	-8371
居於彼	-8372
影像本	-8373
於會幕	-8374
於聖靈	-8375
濟約但	-8376
爾所為	-8377
由上帝	-8378
異族之	-8379
眾先知	-8380
示瑪雅	-8381
祭司職	-8382
答之曰	-8383
肉體之	-8384
西乃山	-8385
duaa	-8386
ferɛ	-8387
gail	-8388
hasi	-8389
huna	-8390
kyen	-8391
kyɛw	-8392
ripa	-8393
▁bee	-8394
▁bɔn	-8395
▁bɛm	-8396
▁egu	-8397
▁fui	-8398
▁koe	-8399
▁mfo	-8400
▁yaa	-8401
▁ɔya	-8402
▁ɛmm	-8403
▁亞哈斯	-8404
▁亞捫人	-8405
▁亞蘭人	-8406
▁以斯帖	-8407
▁伯利恆	-8408
▁我知爾	-8409
▁殺無赦	-8410
▁為燔祭	-8411
▁爾與爾	-8412
▁瑪利亞	-8413
▁若有人	-8414
▁謳歌者	-8415
▁迦得人	-8416
一百三十	-8417
亞撒利雅	-8418
子以利亞	-8419
子比拿雅	-8420
所羅巴伯	-8421
牡山羊一	-8422
獻之燔祭	-8423
耶和華匱	-8424
該撒利亞	-8425
釘十字架	-8426
鋒刃饑饉	-8427
betie	-8428
butuu	-8429
defoɔ	-8430
sasar	-8431
woran	-8432
▁afia	-8433
▁akis	-8434
▁anto	-8435
▁aram	-8436
▁bara	-8437
▁betu	-8438
▁beyi	-8439
▁busu	-8440
▁bɛtu	-8441
▁esii	-8442
▁fifo	-8443
▁geba	-8444
▁kena	-8445
▁meto	-8446
▁modi	-8447
▁mofa	-8448
▁nnue	-8449
▁nnɔn	-8450
▁onya	-8451
▁siba	-8452
▁twae	-8453
▁waba	-8454
▁wato	-8455
▁wuiɛ	-8456
▁wɔhu	-8457
▁wɔsa	-8458
▁wɔsɔ	-8459
▁yɛkɔ	-8460
▁ɔsra	-8461
▁ɛnsa	-8462
▁時日將至	-8463
▁而遵行之	-8464
以法蓮山地	-8465
子以實瑪利	-8466
耶和華約匱	-8467
hwerew	-8468
twafoɔ	-8469
▁adeko	-8470
▁araba	-8471
▁bosuo	-8472
▁bɛbrɛ	-8473
▁bɛbua	-8474
▁bɛtwe	-8475
▁kores	-8476
▁marta	-8477
▁media	-8478
▁minhu	-8479
▁monnɔ	-8480
▁munya	-8481
▁mɛtwa	-8482
▁nkuku	-8483
▁nkɔfa	-8484
▁onyaa	-8485
▁sarai	-8486
▁usiel	-8487
▁wonyɛ	-8488
▁wuram	-8489
▁wɔaba	-8490
▁wɔasɔ	-8491
▁wɔfom	-8492
▁wɔnsi	-8493
▁ɔbɛsi	-8494
▁ɔbɛyi	-8495
▁ɔtane	-8496
▁ɔware	-8497
▁ɔyere	-8498
▁循聖所權衡	-8499
▁耶和華上帝	-8500
▁ahikam	-8501
▁apaafo	-8502
▁atɛfoɔ	-8503
▁bɛtotɔ	-8504
▁dabida	-8505
▁damena	-8506
▁duradu	-8507
▁mafiri	-8508
▁mibisa	-8509
▁mmɛtem	-8510
▁monnye	-8511
▁mpemdu	-8512
▁mprako	-8513
▁mpɔmpɔ	-8514
▁nanteɛ	-8515
▁nkyiri	-8516
▁obosuo	-8517
▁okuafo	-8518
▁towgye	-8519
▁wahunu	-8520
▁wasoma	-8521
▁wobɛka	-8522
▁wɔapam	-8523
▁wɔasra	-8524
▁yoiada	-8525
▁ɛrenyɛ	-8526
▁我乃耶和華也	-8527
kronkron	-8528
▁abigail	-8529
▁adekyee	-8530
▁amantam	-8531
▁atorofo	-8532
▁bebisaa	-8533
▁bɛkamfo	-8534
▁dadwene	-8535
▁nhwehwɛ	-8536
▁nkantom	-8537
▁nkataho	-8538
▁nnansia	-8539
▁ntafowa	-8540
▁teteete	-8541
▁twaberɛ	-8542
▁wobɛwuo	-8543
▁wɔasene	-8544
▁wɔatotɔ	-8545
▁wɔrenni	-8546
▁wɔsiane	-8547
▁ɔrennya	-8548
▁ɔwɛmfoɔ	-8549
▁以色列之上帝曰	-8550
▁則知我乃耶和華	-8551
▁ahodwira	-8552
▁begyinaa	-8553
▁mmɔntene	-8554
▁munnsuro	-8555
▁nkotokuo	-8556
▁ntɔteboa	-8557
▁nyaatwom	-8558
▁sidonfoɔ	-8559
▁teasefoɔ	-8560
▁ɔkɔtenaa	-8561
▁anɔpahema	-8562
▁nkyɛkyerɛ	-8563
▁afirinhyia	-8564
▁agyinatufo	-8565
▁anisoadehu	-8566
▁kronkronyɛ	-8567
▁merekyerɛw	-8568
▁以色列之上帝耶和華云	-8569
▁odwanhwɛfoɔ	-8570
▁akodeɛkurani	-8571
▁傷	-8572
▁具	-8573
▁勸	-8574
▁半	-8575
▁固	-8576
▁姑	-8577
▁存	-8578
▁忍	-8579
▁患	-8580
▁應	-8581
▁戮	-8582
▁招	-8583
▁持	-8584
▁掌	-8585
▁普	-8586
▁服	-8587
▁朝	-8588
▁歌	-8589
▁殿	-8590
▁男	-8591
▁登	-8592
▁空	-8593
▁編	-8594
▁耳	-8595
▁聲	-8596
▁舟	-8597
▁良	-8598
▁鑄	-8599
▁閃	-8600
▁鬼	-8601
一事	-8602
一月	-8603
一言	-8604
三月	-8605
不之	-8606
不善	-8607
之書	-8608
乎爾	-8609
乘馬	-8610
亞巴	-8611
人心	-8612
以待	-8613
任職	-8614
伊甸	-8615
伯拉	-8616
何處	-8617
先導	-8618
全軍	-8619
其果	-8620
凌辱	-8621
勞力	-8622
卻退	-8623
又曰	-8624
及子	-8625
受辱	-8626
名曰	-8627
名而	-8628
向我	-8629
告曰	-8630
哀號	-8631
問之	-8632
基雅	-8633
大力	-8634
奇兆	-8635
奮臂	-8636
如前	-8637
婦曰	-8638
嫉妒	-8639
子拿	-8640
宜也	-8641
容其	-8642
建立	-8643
忠信	-8644
怒甚	-8645
惡行	-8646
愚者	-8647
憐憫	-8648
應之	-8649
懲罰	-8650
所惡	-8651
所生	-8652
所虜	-8653
拉吉	-8654
播種	-8655
攜至	-8656
斃之	-8657
斯世	-8658
於他	-8659
於手	-8660
書珊	-8661
有權	-8662
林木	-8663
枲衣	-8664
樂輸	-8665
欺誑	-8666
決不	-8667
沙基	-8668
為祭	-8669
焚燬	-8670
無盡	-8671
犢一	-8672
王噩	-8673
班列	-8674
瑪斯	-8675
由其	-8676
百肘	-8677
皆然	-8678
眾前	-8679
稱頌	-8680
答之	-8681
米拉	-8682
納之	-8683
經火	-8684
繁多	-8685
置之	-8686
羣眾	-8687
者乃	-8688
者則	-8689
者當	-8690
者自	-8691
者至	-8692
而亡	-8693
至大	-8694
至死	-8695
覆之	-8696
見此	-8697
見者	-8698
諸善	-8699
諸工	-8700
謹守	-8701
讚美	-8702
貧窮	-8703
貪婪	-8704
賞賚	-8705
跛者	-8706
輕重	-8707
迄於	-8708
迷惑	-8709
造之	-8710
隕沒	-8711
革囊	-8712
顧之	-8713
食餅	-8714
bai	-8715
bet	-8716
fɛm	-8717
hud	-8718
hwa	-8719
iot	-8720
kaw	-8721
rii	-8722
rɔw	-8723
sas	-8724
▁ef	-8725
▁一名	-8726
▁不受	-8727
▁不欲	-8728
▁主曰	-8729
▁乃曰	-8730
▁二十	-8731
▁以供	-8732
▁以攔	-8733
▁使徒	-8734
▁其二	-8735
▁凡在	-8736
▁凡爾	-8737
▁列國	-8738
▁則無	-8739
▁勿復	-8740
▁問安	-8741
▁外人	-8742
▁如在	-8743
▁尊榮	-8744
▁希律	-8745
▁彼自	-8746
▁必使	-8747
▁必循	-8748
▁必蒙	-8749
▁我即	-8750
▁我得	-8751
▁我悉	-8752
▁我當	-8753
▁拉結	-8754
▁斯時	-8755
▁方伯	-8756
▁書達	-8757
▁有何	-8758
▁為民	-8759
▁為眾	-8760
▁無能	-8761
▁爾意	-8762
▁爾無	-8763
▁示劍	-8764
▁若非	-8765
▁見一	-8766
▁諸民	-8767
▁變為	-8768
▁遂與	-8769
▁遂起	-8770
上帝兮	-8771
之以火	-8772
之子孫	-8773
之於地	-8774
五千肘	-8775
何為乎	-8776
其居民	-8777
加低斯	-8778
十四日	-8779
原文作	-8780
居於我	-8781
彼拉多	-8782
提摩太	-8783
於我者	-8784
於異邦	-8785
死者之	-8786
牡犢一	-8787
由死中	-8788
者之言	-8789
而為之	-8790
與之戰	-8791
雅各家	-8792
ammɛ	-8793
fini	-8794
kran	-8795
pete	-8796
rmon	-8797
sere	-8798
sɛeɛ	-8799
▁atɛ	-8800
▁bom	-8801
▁kus	-8802
▁tal	-8803
▁tan	-8804
▁usa	-8805
▁上帝僕	-8806
▁以賽亞	-8807
▁侍衛長	-8808
▁利百加	-8809
▁即爾所	-8810
▁大衛王	-8811
▁希勒家	-8812
▁惡者之	-8813
▁我上帝	-8814
▁耶利哥	-8815
▁耶弗他	-8816
之猶大人	-8817
亞摩利人	-8818
以實瑪利	-8819
原影像本	-8820
澣衣濯身	-8821
無辜之血	-8822
耶和華必	-8823
anani	-8824
gyaee	-8825
kɔtwe	-8826
lonka	-8827
nifoɔ	-8828
pɛfoɔ	-8829
safoɔ	-8830
samma	-8831
tɔfoɔ	-8832
wareɛ	-8833
▁adɔn	-8834
▁akuo	-8835
▁anak	-8836
▁aniɛ	-8837
▁atie	-8838
▁bɛsa	-8839
▁bɛsɔ	-8840
▁diiɛ	-8841
▁emfi	-8842
▁faeɛ	-8843
▁kann	-8844
▁magu	-8845
▁mefa	-8846
▁mefi	-8847
▁modɔ	-8848
▁mubu	-8849
▁mɛda	-8850
▁mɛfa	-8851
▁nkan	-8852
▁nnto	-8853
▁ntɛn	-8854
▁pene	-8855
▁refa	-8856
▁remm	-8857
▁retu	-8858
▁reyi	-8859
▁safo	-8860
▁sian	-8861
▁tuaa	-8862
▁tumm	-8863
▁tɔte	-8864
▁wada	-8865
▁wogu	-8866
▁yiyi	-8867
▁ɔtrɛ	-8868
▁ɛfam	-8869
▁凡其所行	-8870
▁區別為聖	-8871
▁及凡所有	-8872
▁我指維生	-8873
▁為耶和華	-8874
▁為酬恩祭	-8875
▁無人居處	-8876
▁祭司諸長	-8877
▁萬軍之主	-8878
▁錫嘏於爾	-8879
乳與蜜之地	-8880
以色列支派	-8881
先知耶利米	-8882
kyinii	-8883
risini	-8884
tafowa	-8885
tonkyi	-8886
▁abasa	-8887
▁adepa	-8888
▁ahode	-8889
▁aroer	-8890
▁asubɔ	-8891
▁awuwu	-8892
▁bɛtoa	-8893
▁bɛtwa	-8894
▁dibea	-8895
▁dompe	-8896
▁gyaee	-8897
▁hanam	-8898
▁horeb	-8899
▁hosea	-8900
▁huhuo	-8901
▁kasaa	-8902
▁kaseɛ	-8903
▁kyere	-8904
▁kɔpem	-8905
▁mafrɛ	-8906
▁manoa	-8907
▁mente	-8908
▁mutie	-8909
▁nkɔko	-8910
▁nnaka	-8911
▁ogyim	-8912
▁okita	-8913
▁pirim	-8914
▁rabsa	-8915
▁remfa	-8916
▁renni	-8917
▁senee	-8918
▁simri	-8919
▁wanka	-8920
▁wɔsɛe	-8921
▁yɛfoɔ	-8922
▁ɔkaeɛ	-8923
▁ɔnhye	-8924
▁ɔnnye	-8925
▁以色列人歟	-8926
▁以色列家歟	-8927
▁俱載於猶大	-8928
▁爾之上帝也	-8929
於以色列人前	-8930
winnwen	-8931
▁afiafi	-8932
▁agyira	-8933
▁ahohia	-8934
▁anhunu	-8935
▁animka	-8936
▁asahel	-8937
▁bɛhyia	-8938
▁kenkan	-8939
▁madane	-8940
▁mesuro	-8941
▁mmɔkaw	-8942
▁monwɛn	-8943
▁nhyɛne	-8944
▁nsaman	-8945
▁nuamma	-8946
▁nyinii	-8947
▁olonka	-8948
▁wohyɛɛ	-8949
▁wonnya	-8950
▁wɔabrɛ	-8951
▁wɔdane	-8952
▁wɔnnue	-8953
▁yehoas	-8954
▁ɔwaree	-8955
▁ɛmfiri	-8956
▁ɛnkɔsi	-8957
sunsuane	-8958
▁adamena	-8959
▁aduhuam	-8960
▁anifira	-8961
▁annyina	-8962
▁danseni	-8963
▁menkasa	-8964
▁mentumi	-8965
▁merenni	-8966
▁migyina	-8967
▁mmɔreka	-8968
▁mpemnum	-8969
▁remfiri	-8970
▁siesiee	-8971
▁sohwɛfo	-8972
▁wanhunu	-8973
▁wobɛnya	-8974
▁wɔasane	-8975
▁wɔasɔre	-8976
▁ɔnanani	-8977
▁ɔsraani	-8978
▁ɔtwerɛɛ	-8979
於爾上帝耶和華前	-8980
▁adasamma	-8981
▁adekodeɛ	-8982
▁ahimelek	-8983
▁asafokuo	-8984
▁asukɔtwe	-8985
▁bansifoɔ	-8986
▁farisini	-8987
▁kurakura	-8988
▁masiesie	-8989
▁meresoma	-8990
▁mpenafoɔ	-8991
▁wɔbɛfiri	-8992
▁wɔrennya	-8993
▁ɔbabanin	-8994
▁ɔhyehyɛɛ	-8995
其列祖之上帝耶和華	-8996
▁animguase	-8997
▁ohwamfufuo	-8998
▁循耶和華所諭摩西之命	-8999
▁nnebɔneyɛfoɔ	-9000
pu	-9001
▁假	-9002
▁偽	-9003
▁兼	-9004
▁喜	-9005
▁念	-9006
▁懷	-9007
▁白	-9008
▁禁	-9009
▁羅	-9010
▁色	-9011
▁蘇	-9012
▁購	-9013
▁路	-9014
▁遁	-9015
▁靈	-9016
▁頒	-9017
一意	-9018
三子	-9019
上有	-9020
之例	-9021
之去	-9022
之君	-9023
之樂	-9024
乖戾	-9025
五萬	-9026
亞實	-9027
他錄	-9028
付我	-9029
以之	-9030
以攻	-9031
以義	-9032
以聽	-9033
任其	-9034
侃侃	-9035
僉曰	-9036
入世	-9037
六千	-9038
共食	-9039
兵卒	-9040
其力	-9041
其祖	-9042
分爭	-9043
利子	-9044
勒斯	-9045
同往	-9046
后妃	-9047
命名	-9048
咆哮	-9049
哈西	-9050
哲士	-9051
善言	-9052
回轉	-9053
基立	-9054
外院	-9055
天國	-9056
奪之	-9057
守此	-9058
宜乎	-9059
害我	-9060
家者	-9061
將為	-9062
尤多	-9063
巡撫	-9064
從其	-9065
復在	-9066
必成	-9067
意謂	-9068
戰者	-9069
所云	-9070
所當	-9071
所誓	-9072
所附	-9073
扶持	-9074
新婦	-9075
於中	-9076
於前	-9077
旁之	-9078
時而	-9079
有四	-9080
有餘	-9081
未見	-9082
柱像	-9083
此時	-9084
殺者	-9085
比擬	-9086
沙番	-9087
治之	-9088
流涕	-9089
海中	-9090
深處	-9091
為室	-9092
爾口	-9093
爾至	-9094
爾身	-9095
琴瑟	-9096
甘子	-9097
生活	-9098
生育	-9099
留於	-9100
異族	-9101
疲憊	-9102
癩者	-9103
發怒	-9104
百合	-9105
真知	-9106
眷屬	-9107
碧玉	-9108
神像	-9109
祭祀	-9110
禁之	-9111
窘迫	-9112
米迦	-9113
給之	-9114
經過	-9115
縲絏	-9116
而獻	-9117
至爾	-9118
與眾	-9119
蔑視	-9120
衣之	-9121
見於	-9122
見王	-9123
見詛	-9124
解其	-9125
諸兆	-9126
諸物	-9127
識者	-9128
賜以	-9129
踴躍	-9130
載云	-9131
迦薩	-9132
逐鬼	-9133
遘疾	-9134
重負	-9135
金環	-9136
集之	-9137
集於	-9138
面之	-9139
革順	-9140
鞫爾	-9141
驕矜	-9142
bar	-9143
bie	-9144
dal	-9145
dek	-9146
eka	-9147
hum	-9148
ila	-9149
kur	-9150
lal	-9151
tub	-9152
tun	-9153
▁不與	-9154
▁不足	-9155
▁不遺	-9156
▁且於	-9157
▁亞基	-9158
▁亦無	-9159
▁以代	-9160
▁任其	-9161
▁俯伏	-9162
▁其主	-9163
▁其例	-9164
▁其口	-9165
▁其狀	-9166
▁其裔	-9167
▁及王	-9168
▁困苦	-9169
▁富有	-9170
▁山嶽	-9171
▁往告	-9172
▁悉屬	-9173
▁惟不	-9174
▁惟其	-9175
▁惟願	-9176
▁意謂	-9177
▁愚者	-9178
▁慎勿	-9179
▁我使	-9180
▁我祖	-9181
▁我願	-9182
▁所獻	-9183
▁所言	-9184
▁斯眾	-9185
▁施恩	-9186
▁有耳	-9187
▁正月	-9188
▁每歲	-9189
▁烏薛	-9190
▁爾使	-9191
▁爾曰	-9192
▁由彼	-9193
▁約坦	-9194
▁維生	-9195
▁聖靈	-9196
▁腓立	-9197
▁自今	-9198
▁與諸	-9199
▁蓋知	-9200
▁賜以	-9201
▁迄今	-9202
▁遂有	-9203
▁雖然	-9204
七十人	-9205
之而去	-9206
亞伯蘭	-9207
亞瑪謝	-9208
仆於刃	-9209
侍衛長	-9210
六百人	-9211
列邦之	-9212
干罪戾	-9213
我典章	-9214
於大衛	-9215
於爾曹	-9216
於錫安	-9217
於陰府	-9218
服事之	-9219
渡約但	-9220
爾之地	-9221
由之而	-9222
約雅敬	-9223
而不得	-9224
而言曰	-9225
聽我聲	-9226
臨陳者	-9227
至聖所	-9228
與我偕	-9229
西珥山	-9230
負其罪	-9231
遣我者	-9232
非尼哈	-9233
非波設	-9234
馬其頓	-9235
baal	-9236
bata	-9237
dini	-9238
drak	-9239
dwan	-9240
dɛfɛ	-9241
fafa	-9242
fune	-9243
fura	-9244
kɛse	-9245
sena	-9246
wano	-9247
yɛni	-9248
▁aga	-9249
▁awi	-9250
▁gal	-9251
▁het	-9252
▁hur	-9253
▁kir	-9254
▁mim	-9255
▁pɔw	-9256
▁sur	-9257
▁suu	-9258
▁wɛn	-9259
▁yɛm	-9260
▁ɔpo	-9261
▁ɔsu	-9262
▁上帝曰	-9263
▁亞哈謝	-9264
▁亞捫族	-9265
▁亞比雅	-9266
▁即基督	-9267
▁原文曰	-9268
▁司閽者	-9269
▁基路伯	-9270
▁如經云	-9271
▁希伯來	-9272
▁希未人	-9273
▁我主歟	-9274
▁我又見	-9275
▁我在此	-9276
▁我未嘗	-9277
▁援我於	-9278
▁歷二十	-9279
▁爾為誰	-9280
▁蛾摩拉	-9281
▁願上帝	-9282
上帝之匱	-9283
付於其手	-9284
以色列諸	-9285
伊法十分	-9286
如是而行	-9287
所立之約	-9288
榮於上帝	-9289
歸耶和華	-9290
為祭司者	-9291
獲罪於爾	-9292
祭司諸長	-9293
耶和華諭	-9294
hwiee	-9295
onini	-9296
piraa	-9297
pirim	-9298
sasta	-9299
sedek	-9300
untum	-9301
▁adar	-9302
▁arta	-9303
▁asua	-9304
▁asun	-9305
▁atew	-9306
▁bani	-9307
▁begu	-9308
▁enwi	-9309
▁gyaw	-9310
▁hana	-9311
▁nebo	-9312
▁nsɔe	-9313
▁pamm	-9314
▁pepe	-9315
▁pere	-9316
▁raba	-9317
▁trɛw	-9318
▁wafa	-9319
▁woda	-9320
▁wɔye	-9321
▁ɔmmɔ	-9322
▁ɔwui	-9323
▁以實瑪利	-9324
▁永世靡暨	-9325
▁耶和華命	-9326
▁耶和華既	-9327
▁自東至西	-9328
以色列族中	-9329
耶和華所言	-9330
與𠵽唎㘔人	-9331
anante	-9332
dwirii	-9333
gyefoɔ	-9334
▁amram	-9335
▁apopo	-9336
▁barak	-9337
▁bisae	-9338
▁bɛboa	-9339
▁bɛbɔɔ	-9340
▁dwira	-9341
▁festo	-9342
▁heman	-9343
▁hiani	-9344
▁huruu	-9345
▁huuyɛ	-9346
▁hyɛne	-9347
▁keila	-9348
▁kuntu	-9349
▁kɔyɛɛ	-9350
▁matwe	-9351
▁mohyɛ	-9352
▁mommu	-9353
▁mosom	-9354
▁moyɛɛ	-9355
▁munhu	-9356
▁nsopa	-9357
▁ntira	-9358
▁onnim	-9359
▁wabrɛ	-9360
▁wobua	-9361
▁wofii	-9362
▁wohwɛ	-9363
▁wɔbuu	-9364
▁wɔmpɛ	-9365
▁wɔtow	-9366
▁yɛadi	-9367
▁yɛyɛɛ	-9368
▁ɔdane	-9369
▁ɔdiiɛ	-9370
▁ɔmane	-9371
▁ɛrekɔ	-9372
▁尼布甲尼撒	-9373
▁祭司利未人	-9374
以色列人之罪	-9375
hwanyan	-9376
nimfini	-9377
▁afideɛ	-9378
▁ahemfi	-9379
▁awadeɛ	-9380
▁bebisa	-9381
▁bɛtumi	-9382
▁dommum	-9383
▁firiiɛ	-9384
▁hermon	-9385
▁malkia	-9386
▁midwen	-9387
▁mikael	-9388
▁mitumi	-9389
▁mmasuo	-9390
▁moanni	-9391
▁mompae	-9392
▁munnue	-9393
▁mɛdane	-9394
▁nkyere	-9395
▁nkɔsom	-9396
▁nnesoa	-9397
▁papayɛ	-9398
▁retwam	-9399
▁wantie	-9400
▁woamma	-9401
▁wobehu	-9402
▁wobuaa	-9403
▁woreka	-9404
▁woreyɛ	-9405
▁wotwaa	-9406
▁wɔbɛba	-9407
▁wɔbɛkɔ	-9408
▁wɔnyaa	-9409
▁yefune	-9410
▁yiedie	-9411
▁yiyedi	-9412
▁耶和華諭摩西	-9413
爾上帝耶和華之	-9414
陷以色列人之罪	-9415
▁adammoa	-9416
▁adɔeɛyɛ	-9417
▁ahuhuro	-9418
▁animono	-9419
▁aniɛden	-9420
▁anofafa	-9421
▁apontoɔ	-9422
▁atuateɛ	-9423
▁betania	-9424
▁eliakim	-9425
▁eliasib	-9426
▁elisama	-9427
▁homebea	-9428
▁merenkɔ	-9429
▁mfutuma	-9430
▁nkonyaa	-9431
▁ntintan	-9432
▁ntutuiɛ	-9433
▁nworonn	-9434
▁owusɔre	-9435
▁rabsake	-9436
▁stefano	-9437
▁wɔkyerɛ	-9438
▁wɔremma	-9439
▁wɔsomaa	-9440
▁yebenya	-9441
▁ɔpanyin	-9442
▁aminadab	-9443
▁apinisie	-9444
▁kohatfoɔ	-9445
▁mohwehwɛ	-9446
▁nkataano	-9447
▁wɔhyehyɛ	-9448
▁ɔnwomfoɔ	-9449
▁俱載於猶大列王紀	-9450
▁anɔpatutu	-9451
▁artasasta	-9452
▁mmaninneɛ	-9453
▁mmɔfraase	-9454
▁nneduafoɔ	-9455
▁melkisedek	-9456
▁mfinimfini	-9457
▁persiahene	-9458
▁kokurobetie	-9459
▁wɔtenatenaa	-9460
▁nworonnworan	-9461
▁wɔgyinagyina	-9462
dm	-9463
ok	-9464
os	-9465
▁奸	-9466
▁屢	-9467
▁忽	-9468
▁教	-9469
▁權	-9470
▁淫	-9471
▁滿	-9472
▁童	-9473
▁精	-9474
▁聚	-9475
▁護	-9476
▁貫	-9477
▁轄	-9478
▁陀	-9479
▁音	-9480
▁鬻	-9481
七次	-9482
上升	-9483
不公	-9484
不為	-9485
中者	-9486
主曰	-9487
乃為	-9488
之寶	-9489
之屋	-9490
之愛	-9491
乎我	-9492
乎此	-9493
二日	-9494
亞衲	-9495
人希	-9496
他施	-9497
令人	-9498
以告	-9499
以水	-9500
以爾	-9501
伯農	-9502
何其	-9503
作苦	-9504
來者	-9505
俄斐	-9506
俱備	-9507
偕寢	-9508
傷之	-9509
充滿	-9510
光明	-9511
六日	-9512
其榮	-9513
其聲	-9514
其間	-9515
凡有	-9516
勝數	-9517
匱前	-9518
十一	-9519
十肘	-9520
卑微	-9521
及之	-9522
及諸	-9523
古列	-9524
同寢	-9525
哀歌	-9526
啦吡	-9527
嘉物	-9528
四年	-9529
因之	-9530
坦業	-9531
基倫	-9532
基尼	-9533
堅定	-9534
外戚	-9535
妻之	-9536
姦淫	-9537
娶者	-9538
子者	-9539
定例	-9540
宣之	-9541
宰之	-9542
容光	-9543
尊崇	-9544
尚在	-9545
居爾	-9546
巫覡	-9547
己命	-9548
己所	-9549
己身	-9550
已屆	-9551
常例	-9552
弱者	-9553
往攻	-9554
得拉	-9555
忘爾	-9556
恃之	-9557
惡途	-9558
應許	-9559
我諸	-9560
我身	-9561
我間	-9562
戶珥	-9563
所建	-9564
所往	-9565
所需	-9566
拯之	-9567
擊其	-9568
擊我	-9569
操權	-9570
教者	-9571
斯人	-9572
於磐	-9573
施濟	-9574
施行	-9575
旅於	-9576
書之	-9577
有三	-9578
有十	-9579
未之	-9580
植之	-9581
構廬	-9582
此乎	-9583
此也	-9584
此室	-9585
此者	-9586
殄滅	-9587
母胎	-9588
比利	-9589
永約	-9590
河西	-9591
沾恩	-9592
流離	-9593
滄海	-9594
漰渤	-9595
為者	-9596
無言	-9597
爭競	-9598
爭辯	-9599
爾恩	-9600
爾民	-9601
獺皮	-9602
王子	-9603
珍寶	-9604
生也	-9605
生而	-9606
由天	-9607
畏之	-9608
相連	-9609
眾女	-9610
碎之	-9611
稱義	-9612
突人	-9613
罪惡	-9614
罷特	-9615
者皆	-9616
而受	-9617
而終	-9618
聞而	-9619
臨格	-9620
臨門	-9621
與彼	-9622
芳品	-9623
萬人	-9624
萬歲	-9625
蒙召	-9626
薛西	-9627
衣以	-9628
覲王	-9629
記誌	-9630
誰耶	-9631
議士	-9632
豈非	-9633
豐盛	-9634
資財	-9635
走獸	-9636
輔助	-9637
述之	-9638
逃遁	-9639
遠我	-9640
邱墟	-9641
酵節	-9642
隨魯	-9643
非義	-9644
預定	-9645
顚躓	-9646
魯雅	-9647
麥基	-9648
黑暗	-9649
bir	-9650
fas	-9651
fii	-9652
had	-9653
lag	-9654
nwi	-9655
oko	-9656
tɛw	-9657
ɛkɛ	-9658
▁ed	-9659
▁一千	-9660
▁不如	-9661
▁不第	-9662
▁不許	-9663
▁且我	-9664
▁乃自	-9665
▁他人	-9666
▁以免	-9667
▁以拉	-9668
▁以贖	-9669
▁以避	-9670
▁但我	-9671
▁俾得	-9672
▁俾眾	-9673
▁免爾	-9674
▁其式	-9675
▁其手	-9676
▁出自	-9677
▁列陳	-9678
▁則有	-9679
▁則願	-9680
▁勇士	-9681
▁去其	-9682
▁及旅	-9683
▁哈沙	-9684
▁夜間	-9685
▁寅畏	-9686
▁彼遂	-9687
▁彼雖	-9688
▁得其	-9689
▁必取	-9690
▁必在	-9691
▁必皆	-9692
▁惟有	-9693
▁憐恤	-9694
▁我命	-9695
▁我手	-9696
▁我有	-9697
▁我素	-9698
▁所為	-9699
▁按其	-9700
▁按手	-9701
▁故曰	-9702
▁有聲	-9703
▁橄欖	-9704
▁毋懼	-9705
▁比拉	-9706
▁沙番	-9707
▁焚其	-9708
▁爾出	-9709
▁由是	-9710
▁皆必	-9711
▁示瑪	-9712
▁素祭	-9713
▁編註	-9714
▁而無	-9715
▁行於	-9716
▁行鞫	-9717
▁謝拉	-9718
▁譯即	-9719
▁轉而	-9720
▁迨至	-9721
▁頌美	-9722
▁願王	-9723
一伊法	-9724
不可食	-9725
主之僕	-9726
之人兮	-9727
之兄弟	-9728
亞哈家	-9729
以弗所	-9730
伏於地	-9731
其所欲	-9732
利百加	-9733
子亞撒	-9734
孚尼子	-9735
安提阿	-9736
居斯土	-9737
往埃及	-9738
得救也	-9739
拿基立	-9740
爾列祖	-9741
爾名兮	-9742
爾言兮	-9743
猶大地	-9744
猶大眾	-9745
瑪西雅	-9746
相語曰	-9747
義人之	-9748
翦滅之	-9749
而取之	-9750
而預言	-9751
與祭司	-9752
蒙羞恥	-9753
行殺戮	-9754
谷中之	-9755
達薛西	-9756
金銀銅	-9757
食其果	-9758
deda	-9759
gyam	-9760
koma	-9761
kuku	-9762
onko	-9763
onom	-9764
pane	-9765
riam	-9766
sopa	-9767
suwa	-9768
tani	-9769
tefo	-9770
toaa	-9771
tunu	-9772
wila	-9773
yiyi	-9774
ɔnom	-9775
▁and	-9776
▁apɔ	-9777
▁dui	-9778
▁hen	-9779
▁kor	-9780
▁mil	-9781
▁ode	-9782
▁otu	-9783
▁reu	-9784
▁sae	-9785
▁sia	-9786
▁tin	-9787
▁tra	-9788
▁wɔt	-9789
▁yak	-9790
▁ɔsi	-9791
▁勿使我	-9792
▁大衛謂	-9793
▁我儕既	-9794
▁我儕若	-9795
▁我豈不	-9796
▁波阿斯	-9797
▁為其所	-9798
▁為我所	-9799
▁米書蘭	-9800
▁請容我	-9801
一肘有半	-9802
之十字架	-9803
十舍客勒	-9804
及其鄉里	-9805
壽高年邁	-9806
守逾越節	-9807
於安息日	-9808
補過之祭	-9809
anneɛ	-9810
bilon	-9811
dodoɔ	-9812
duafo	-9813
kanee	-9814
ltiel	-9815
paapa	-9816
sɛnee	-9817
tanel	-9818
yɛnee	-9819
▁abed	-9820
▁afum	-9821
▁antu	-9822
▁antɔ	-9823
▁atom	-9824
▁atow	-9825
▁atrɛ	-9826
▁dadu	-9827
▁dɔfo	-9828
▁eber	-9829
▁eduu	-9830
▁koeɛ	-9831
▁kyen	-9832
▁kɛkɛ	-9833
▁mebu	-9834
▁mɛte	-9835
▁nego	-9836
▁nwon	-9837
▁nyin	-9838
▁obuu	-9839
▁papo	-9840
▁sana	-9841
▁soaa	-9842
▁sraa	-9843
▁tase	-9844
▁team	-9845
▁toro	-9846
▁wofa	-9847
▁ɔfam	-9848
▁ɛtoa	-9849
▁亞倫子孫	-9850
▁代為贖罪	-9851
▁以為搖祭	-9852
▁因耶和華	-9853
▁撒迦利雅	-9854
▁猶生子女	-9855
▁耶和華亦	-9856
▁耶布斯人	-9857
▁能臨陳者	-9858
▁迦勒底人	-9859
二萬五千肘	-9860
孚尼子迦勒	-9861
導爾出埃及	-9862
恆獻之燔祭	-9863
為耶和華之	-9864
獻牡山羊一	-9865
甘子基大利	-9866
ammisa	-9867
gyinae	-9868
hyiraa	-9869
koroma	-9870
sɛefoɔ	-9871
▁adefo	-9872
▁anhwɛ	-9873
▁antwe	-9874
▁apira	-9875
▁apuei	-9876
▁atete	-9877
▁bɛhye	-9878
▁bɛkae	-9879
▁debir	-9880
▁denyɛ	-9881
▁fuwii	-9882
▁geser	-9883
▁gesur	-9884
▁gosen	-9885
▁gyefo	-9886
▁karea	-9887
▁kehat	-9888
▁mahli	-9889
▁mebae	-9890
▁menya	-9891
▁mesak	-9892
▁metua	-9893
▁moakɔ	-9894
▁monam	-9895
▁monnn	-9896
▁motee	-9897
▁mumfi	-9898
▁mɛsɛe	-9899
▁nhina	-9900
▁nkosi	-9901
▁nnidi	-9902
▁nnyan	-9903
▁obebu	-9904
▁ogyaa	-9905
▁onini	-9906
▁onnye	-9907
▁popoe	-9908
▁rebrɛ	-9909
▁rekab	-9910
▁supɔw	-9911
▁tobia	-9912
▁wammu	-9913
▁wampɛ	-9914
▁watwe	-9915
▁woafa	-9916
▁woayi	-9917
▁wokae	-9918
▁wɔkɔe	-9919
▁wɔrem	-9920
▁yɛmmɛ	-9921
▁ɔbrɛɛ	-9922
▁ɔkorɔ	-9923
▁ɔkura	-9924
▁ɔtoro	-9925
▁ɛbɛso	-9926
▁寅畏耶和華	-9927
▁導爾出埃及	-9928
▁為以色列族	-9929
▁自耶路撒冷	-9930
▁至耶路撒冷	-9931
▁雅各之上帝	-9932
以色列之上帝	-9933
流乳與蜜之地	-9934
▁abuada	-9935
▁adwiri	-9936
▁ahitub	-9937
▁ahodwo	-9938
▁akamfo	-9939
▁akuraa	-9940
▁awufoɔ	-9941
▁barima	-9942
▁bɛhyɛɛ	-9943
▁bɛtwaa	-9944
▁dunson	-9945
▁eliesa	-9946
▁gehasi	-9947
▁kurobo	-9948
▁kɔhyɛɛ	-9949
▁merebɔ	-9950
▁miriam	-9951
▁monnka	-9952
▁mpaemu	-9953
▁mubedi	-9954
▁mɛfiri	-9955
▁nantee	-9956
▁nsɔano	-9957
▁ntakra	-9958
▁nteamu	-9959
▁owifoɔ	-9960
▁pepeaa	-9961
▁sadrak	-9962
▁siklag	-9963
▁titire	-9964
▁twerɛɛ	-9965
▁woanni	-9966
▁woanyɛ	-9967
▁wɔamia	-9968
▁wɔhyee	-9969
▁wɔmmma	-9970
▁wɔsɛee	-9971
▁wɔtane	-9972
▁wɔyɛeɛ	-9973
▁ɔbabaa	-9974
▁ɔbobɔɔ	-9975
▁ɔbɛwuo	-9976
▁ɔsiane	-9977
▁ɔsisii	-9978
▁耶和華之榮光	-9979
探雅子以實瑪利	-9980
hempanin	-9981
twentwɛn	-9982
▁adifire	-9983
▁adwotwa	-9984
▁afifide	-9985
▁ahimaas	-9986
▁asennii	-9987
▁ayaresa	-9988
▁babilon	-9989
▁bɛsiane	-9990
▁edomfoɔ	-9991
▁hwanyan	-9992
▁kurotia	-9993
▁matania	-9994
▁mebisaa	-9995
▁monkɔka	-9996
▁morenhu	-9997
▁mubegye	-9998
▁nkotoku	-9999
▁papaapa	-10000
▁sukooko	-10001
▁susuwii	-10002
▁wobekum	-10003
▁wohunuu	-10004
▁wosomaa	-10005
▁wɔabobɔ	-10006
▁wɔahwie	-10007
▁wɔkyere	-10008
▁wɔsɔree	-10009
▁yɛahunu	-10010
▁ɔbɛfiri	-10011
▁ɔnantee	-10012
sunsuanee	-10013
▁abɔntene	-10014
▁adedodoɔ	-10015
▁afɛfɛdeɛ	-10016
▁ahenkyɛw	-10017
▁aniwudeɛ	-10018
▁bɛkyeree	-10019
▁korakora	-10020
▁menkyerɛ	-10021
▁merennya	-10022
▁mmirekyi	-10023
▁momonoto	-10024
▁nneduafo	-10025
▁nsɛmmɔne	-10026
▁sekemfoɔ	-10027
▁sukraman	-10028
▁ɔbaabunu	-10029
▁爾則知我乃耶和華	-10030
▁abankɛseɛ	-10031
▁adwanefoɔ	-10032
▁ahodwirie	-10033
▁ahuntasɛm	-10034
▁amalekfoɔ	-10035
▁asorɔkyeɛ	-10036
▁dɔnhwerew	-10037
▁mefiboset	-10038
▁mmorɔnoma	-10039
▁mmotafowa	-10040
▁nkyirimma	-10041
▁ogyimifoɔ	-10042
▁wɔatwitwa	-10043
▁abooboodie	-10044
▁atirimɔden	-10045
▁worehwehwɛ	-10046
▁ɔdehunufoɔ	-10047
▁agyinatufoɔ	-10048
▁ayeforokunu	-10049
▁gyataburuwa	-10050
▁onipakumfoɔ	-10051
▁wɔkyekyeree	-10052
▁asomdwoeɛsɛm	-10053
▁mmeranteberɛ	-10054
▁云	-10055
▁伸	-10056
▁冀	-10057
▁冠	-10058
▁初	-10059
▁哥	-10060
▁夕	-10061
▁家	-10062
▁射	-10063
▁幾	-10064
▁思	-10065
▁感	-10066
▁挪	-10067
▁接	-10068
▁携	-10069
▁暴	-10070
▁本	-10071
▁樹	-10072
▁氣	-10073
▁牽	-10074
▁祇	-10075
▁肇	-10076
▁變	-10077
▁賴	-10078
▁趨	-10079
▁述	-10080
▁運	-10081
▁釁	-10082
▁閉	-10083
▁雨	-10084
▁飢	-10085
▁餘	-10086
▁香	-10087
一次	-10088
三邑	-10089
上騰	-10090
下至	-10091
不在	-10092
世代	-10093
中所	-10094
中為	-10095
之兆	-10096
之災	-10097
之苦	-10098
二肘	-10099
人多	-10100
人血	-10101
付爾	-10102
休息	-10103
何在	-10104
佯為	-10105
元始	-10106
內室	-10107
全身	-10108
切齒	-10109
則不	-10110
前曰	-10111
創造	-10112
勇力	-10113
厥污	-10114
口撒	-10115
告王	-10116
命之	-10117
和崙	-10118
哲人	-10119
嘉音	-10120
器械	-10121
四肘	-10122
回厥	-10123
因我	-10124
因此	-10125
基大	-10126
增益	-10127
士提	-10128
大會	-10129
大海	-10130
天象	-10131
如之	-10132
孩童	-10133
官長	-10134
宣傳	-10135
宦豎	-10136
害爾	-10137
對岸	-10138
尼布	-10139
尼歌	-10140
希蘭	-10141
干犯	-10142
建築	-10143
得烈	-10144
從爾	-10145
必得	-10146
必見	-10147
忍耐	-10148
忘我	-10149
悅爾	-10150
惜之	-10151
惡報	-10152
愛我	-10153
愧怍	-10154
憂甚	-10155
戀慕	-10156
我云	-10157
所不	-10158
所以	-10159
所傳	-10160
所用	-10161
所簡	-10162
所遣	-10163
扶之	-10164
拉篾	-10165
拯我	-10166
拯爾	-10167
振興	-10168
敵之	-10169
敵兮	-10170
數日	-10171
斯子	-10172
方舟	-10173
於一	-10174
於石	-10175
旅人	-10176
旋風	-10177
旱乾	-10178
是恃	-10179
書此	-10180
有者	-10181
末日	-10182
末期	-10183
業兮	-10184
業於	-10185
歌曰	-10186
歌珊	-10187
正者	-10188
此地	-10189
歸己	-10190
毘珥	-10191
求者	-10192
沒藥	-10193
沙利	-10194
洗德	-10195
洞悉	-10196
滅絕	-10197
無一	-10198
熱中	-10199
爾必	-10200
猶存	-10201
瑪他	-10202
瑪吉	-10203
產業	-10204
由之	-10205
由於	-10206
當滅	-10207
疇昔	-10208
目前	-10209
相從	-10210
睚珥	-10211
禧年	-10212
立為	-10213
第雅	-10214
米亞	-10215
米羅	-10216
索之	-10217
義也	-10218
者所	-10219
而投	-10220
而致	-10221
聖會	-10222
肢體	-10223
自救	-10224
與子	-10225
與酒	-10226
苦難	-10227
莫能	-10228
薙髮	-10229
蝗蟲	-10230
西巴	-10231
見憶	-10232
角聲	-10233
言而	-10234
諸人	-10235
謙遜	-10236
豈能	-10237
象牙	-10238
負荷	-10239
財物	-10240
責爾	-10241
足之	-10242
路得	-10243
轉身	-10244
逃城	-10245
通國	-10246
通衢	-10247
遁逃	-10248
過之	-10249
道途	-10250
銀一	-10251
鑄像	-10252
陀法	-10253
離乎	-10254
靜默	-10255
餅一	-10256
骸骨	-10257
黑門	-10258
deo	-10259
dor	-10260
dɛw	-10261
gon	-10262
hun	-10263
tai	-10264
twi	-10265
tɔe	-10266
▁不但	-10267
▁不在	-10268
▁不食	-10269
▁且為	-10270
▁乃爾	-10271
▁乃謂	-10272
▁亦以	-10273
▁今可	-10274
▁今已	-10275
▁以備	-10276
▁以手	-10277
▁以攻	-10278
▁伏地	-10279
▁何所	-10280
▁其有	-10281
▁凡不	-10282
▁凡屬	-10283
▁出而	-10284
▁則知	-10285
▁即自	-10286
▁右手	-10287
▁吞噬	-10288
▁吾主	-10289
▁吾子	-10290
▁四十	-10291
▁基拉	-10292
▁如不	-10293
▁如有	-10294
▁安然	-10295
▁尋求	-10296
▁尼哥	-10297
▁居民	-10298
▁崇事	-10299
▁彼為	-10300
▁彼與	-10301
▁往見	-10302
▁得以	-10303
▁必見	-10304
▁我來	-10305
▁或為	-10306
▁拉瑪	-10307
▁拯救	-10308
▁揚聲	-10309
▁施行	-10310
▁族長	-10311
▁是也	-10312
▁此言	-10313
▁歷十	-10314
▁殺戮	-10315
▁永久	-10316
▁無非	-10317
▁然彼	-10318
▁燔祭	-10319
▁王乃	-10320
▁生子	-10321
▁男女	-10322
▁異邦	-10323
▁當其	-10324
▁當憶	-10325
▁當為	-10326
▁盈以	-10327
▁禁食	-10328
▁羅得	-10329
▁而加	-10330
▁而後	-10331
▁胡為	-10332
▁臥於	-10333
▁蒙其	-10334
▁蓋曰	-10335
▁西拉	-10336
▁軍長	-10337
▁遂謂	-10338
▁遵行	-10339
▁金甌	-10340
▁銀盂	-10341
▁銀盤	-10342
▁錫以	-10343
▁隨在	-10344
三十人	-10345
三十歲	-10346
上帝旨	-10347
不潔者	-10348
不義之	-10349
之俘囚	-10350
之保障	-10351
之先知	-10352
之少者	-10353
之役事	-10354
之貨財	-10355
事他神	-10356
亞哈謝	-10357
亦虛空	-10358
以斯拉	-10359
其名數	-10360
基督者	-10361
士提反	-10362
大衛王	-10363
尼尼微	-10364
惡人之	-10365
所獻之	-10366
掃羅曰	-10367
摩西之	-10368
於他神	-10369
於其地	-10370
於地極	-10371
於巴力	-10372
於我父	-10373
書所載	-10374
書與爾	-10375
歸其家	-10376
歸故土	-10377
歸於我	-10378
歸於爾	-10379
永久兮	-10380
流人血	-10381
為我所	-10382
百合花	-10383
米拉利	-10384
聞之矣	-10385
聞其言	-10386
蒙赦宥	-10387
裂其衣	-10388
補過祭	-10389
諸兄弟	-10390
頌美焉	-10391
anim	-10392
dɔkɔ	-10393
emia	-10394
fefɛ	-10395
huri	-10396
hwim	-10397
kete	-10398
koro	-10399
mfom	-10400
poma	-10401
sara	-10402
team	-10403
woeɛ	-10404
▁ami	-10405
▁gog	-10406
▁ido	-10407
▁nno	-10408
▁rut	-10409
▁sif	-10410
▁sow	-10411
▁wee	-10412
▁wɔd	-10413
▁ɛgu	-10414
▁亞蘭王	-10415
▁亦如是	-10416
▁以他瑪	-10417
▁以斯哈	-10418
▁以斯拉	-10419
▁便哈達	-10420
▁凡爾所	-10421
▁利巴嫩	-10422
▁即上帝	-10423
▁惡人之	-10424
▁我儕當	-10425
▁我必罰	-10426
▁我必降	-10427
▁摩押人	-10428
▁無花果	-10429
▁爾何為	-10430
▁牡犢一	-10431
▁當以為	-10432
▁而不之	-10433
▁耶穌謂	-10434
▁蓋爾曹	-10435
▁越三日	-10436
▁迦南人	-10437
上帝之室	-10438
付於爾手	-10439
所得之區	-10440
視為善者	-10441
酬恩之祭	-10442
anaim	-10443
anten	-10444
gyent	-10445
herib	-10446
kelon	-10447
kotow	-10448
mufoɔ	-10449
suahu	-10450
tasee	-10451
▁afom	-10452
▁agag	-10453
▁ammɔ	-10454
▁amoa	-10455
▁anhu	-10456
▁beae	-10457
▁bela	-10458
▁bɛsu	-10459
▁dɔre	-10460
▁dɔte	-10461
▁hini	-10462
▁kaee	-10463
▁kuna	-10464
▁kɔdi	-10465
▁kɔyɛ	-10466
▁mane	-10467
▁meyi	-10468
▁mitu	-10469
▁mmmɛ	-10470
▁naha	-10471
▁neto	-10472
▁nkra	-10473
▁ntom	-10474
▁nyɛɛ	-10475
▁peka	-10476
▁refi	-10477
▁sɛso	-10478
▁tito	-10479
▁wasi	-10480
▁woam	-10481
▁wɔpo	-10482
▁ɔham	-10483
▁ɔhem	-10484
▁ɔkan	-10485
▁ɔkɔe	-10486
▁ɔwɛn	-10487
▁ɛbae	-10488
▁ɛbɔɔ	-10489
▁ɛhaw	-10490
▁一歲之羔	-10491
▁以利加拿	-10492
▁禍哉其人	-10493
▁耶和華藉	-10494
▁耶和華論	-10495
二萬四千人	-10496
我民以色列	-10497
祭司利未人	-10498
耶和華之名	-10499
dalene	-10500
kariot	-10501
kyeraa	-10502
kyɛmma	-10503
kɔdɔkɔ	-10504
onwono	-10505
yinamu	-10506
▁abata	-10507
▁abɛka	-10508
▁abɛto	-10509
▁adeda	-10510
▁afuom	-10511
▁akeka	-10512
▁akode	-10513
▁akɔdi	-10514
▁akɔma	-10515
▁amasa	-10516
▁amene	-10517
▁ammua	-10518
▁anene	-10519
▁anhwe	-10520
▁apere	-10521
▁asram	-10522
▁boroo	-10523
▁dware	-10524
▁efron	-10525
▁enyin	-10526
▁henok	-10527
▁hɔnom	-10528
▁maboa	-10529
▁megye	-10530
▁mompɛ	-10531
▁montu	-10532
▁mpire	-10533
▁mɛboa	-10534
▁nkoko	-10535
▁nkwan	-10536
▁nkɔbɔ	-10537
▁nnanu	-10538
▁nnawu	-10539
▁nsosɔ	-10540
▁obobe	-10541
▁okris	-10542
▁rentɔ	-10543
▁turom	-10544
▁wanni	-10545
▁wanyɛ	-10546
▁wasɛe	-10547
▁woabu	-10548
▁wokyi	-10549
▁wɔaku	-10550
▁wɔann	-10551
▁wɔapo	-10552
▁wɔyɛe	-10553
▁yeiel	-10554
▁ɔbisa	-10555
▁ɔbɛwu	-10556
▁ɔmmoa	-10557
▁ɔpaee	-10558
▁ɔtwee	-10559
▁ɛbɛto	-10560
▁以色列會眾	-10561
▁凡有血氣者	-10562
▁耶路撒冷歟	-10563
▁重十舍客勒	-10564
以色列之聖者	-10565
伊法十分之一	-10566
獲罪於耶和華	-10567
kunkumm	-10568
sakyera	-10569
saradan	-10570
tenkete	-10571
wansuwa	-10572
▁adapaa	-10573
▁agripa	-10574
▁akuafo	-10575
▁amaria	-10576
▁andrea	-10577
▁anidie	-10578
▁antena	-10579
▁atenae	-10580
▁baalim	-10581
▁baraba	-10582
▁bɛwuwu	-10583
▁danfoɔ	-10584
▁gyegye	-10585
▁hohoro	-10586
▁hunuiɛ	-10587
▁kwasea	-10588
▁mehwɛɛ	-10589
▁meremm	-10590
▁mesɔre	-10591
▁mmɛnta	-10592
▁moamfa	-10593
▁moanyɛ	-10594
▁momfrɛ	-10595
▁mɛhunu	-10596
▁nkɔmmɔ	-10597
▁ntwene	-10598
▁ofitii	-10599
▁osuahu	-10600
▁osukɔm	-10601
▁refiri	-10602
▁tenten	-10603
▁woamfa	-10604
▁wobebu	-10605
▁wobɛbɔ	-10606
▁wobɛkɔ	-10607
▁wubehu	-10608
▁wɔanyɛ	-10609
▁wɔasie	-10610
▁wɔnnye	-10611
▁wɔnsoa	-10612
▁wɔrebɔ	-10613
▁wɔreka	-10614
▁wɔsoso	-10615
▁yehiel	-10616
▁yɛbɛka	-10617
▁ɔnhunu	-10618
▁ɛremma	-10619
▁一歲之牡羔一	-10620
▁故主耶和華曰	-10621
▁adaadaa	-10622
▁agyirae	-10623
▁ahopopo	-10624
▁askelon	-10625
▁awudifo	-10626
▁bɛdɔɔso	-10627
▁dwontoɔ	-10628
▁hasabia	-10629
▁kununom	-10630
▁kɔgyina	-10631
▁monnane	-10632
▁nsɔwano	-10633
▁ntaayaa	-10634
▁obonini	-10635
▁wɔhyɛne	-10636
▁wɔrenyɛ	-10637
▁wɔsisii	-10638
▁wɔtotoo	-10639
▁ɔbɛsane	-10640
▁ɔdaadaa	-10641
▁ɔkraman	-10642
▁ɔsomfoɔ	-10643
▁蓋爾上帝耶和華	-10644
▁ahankron	-10645
▁ahokyere	-10646
▁asraafoɔ	-10647
▁elisabet	-10648
▁iskariot	-10649
▁matwitwa	-10650
▁mmerɛboɔ	-10651
▁mobɛhunu	-10652
▁mpemnson	-10653
▁nokwafoɔ	-10654
▁nyamesom	-10655
▁rehwehwɛ	-10656
▁towgyefo	-10657
▁wɔahyira	-10658
▁wɔbɛsane	-10659
▁wɔkyerɛɛ	-10660
▁wɔnkyere	-10661
▁wɔtwerɛɛ	-10662
▁yerubaal	-10663
▁ɔbɛgyina	-10664
kronkronni	-10665
▁afɔrebɔde	-10666
▁anyankuku	-10667
▁apɔnkɔfoɔ	-10668
▁atwerɛfoɔ	-10669
▁gileadfoɔ	-10670
▁magdalene	-10671
▁nasaretni	-10672
▁nokorɛdie	-10673
▁nyinsɛnee	-10674
▁okristoni	-10675
▁sanaherib	-10676
▁tenatenaa	-10677
▁yesreelni	-10678
▁yɛrentumi	-10679
▁ɔtemmufoɔ	-10680
▁mmoahwɛfoɔ	-10681
▁nketenkete	-10682
▁nsuwansuwa	-10683
▁nwononwono	-10684
▁oguanhwɛfo	-10685
▁adwumayɛfoɔ	-10686
▁nebusaradan	-10687
▁nkyɛnkyɛmma	-10688
▁ɔkronkronni	-10689
▁nantwiburuwa	-10690
▁八	-10691
▁刦	-10692
▁勢	-10693
▁售	-10694
▁土	-10695
▁壇	-10696
▁婢	-10697
▁廊	-10698
▁惰	-10699
▁拾	-10700
▁掩	-10701
▁敬	-10702
▁欺	-10703
▁灑	-10704
▁焉	-10705
▁獅	-10706
▁甲	-10707
▁耕	-10708
▁肉	-10709
▁蔽	-10710
▁血	-10711
▁親	-10712
▁識	-10713
▁迎	-10714
▁都	-10715
▁醫	-10716
▁陷	-10717
一也	-10718
不絕	-10719
不與	-10720
不順	-10721
不飲	-10722
主者	-10723
乃真	-10724
之橡	-10725
之牲	-10726
之犢	-10727
之若	-10728
之軍	-10729
乘之	-10730
九百	-10731
二族	-10732
亞米	-10733
以得	-10734
伊施	-10735
供事	-10736
信也	-10737
信我	-10738
偕亡	-10739
僕之	-10740
入邑	-10741
內院	-10742
其壇	-10743
其尸	-10744
其眾	-10745
出戰	-10746
判斷	-10747
利暗	-10748
利甲	-10749
制之	-10750
勸爾	-10751
勿食	-10752
去其	-10753
叛逆	-10754
古昔	-10755
召爾	-10756
同坐	-10757
同心	-10758
同於	-10759
告人	-10760
哥亞	-10761
囁議	-10762
坎阱	-10763
堅固	-10764
夜間	-10765
大尼	-10766
奉遣	-10767
女子	-10768
妄證	-10769
守衛	-10770
定之	-10771
容之	-10772
寂寞	-10773
實提	-10774
尋我	-10775
小子	-10776
小驢	-10777
居其	-10778
屬邑	-10779
島嶼	-10780
已久	-10781
帷幕	-10782
庇太	-10783
延年	-10784
建造	-10785
式食	-10786
式飲	-10787
引之	-10788
彼眾	-10789
得愈	-10790
得撒	-10791
得業	-10792
得醫	-10793
復建	-10794
忒羅	-10795
忘其	-10796
怒而	-10797
恩賜	-10798
情人	-10799
憶之	-10800
憾之	-10801
應得	-10802
懼甚	-10803
懽忭	-10804
戍樓	-10805
我如	-10806
我愛	-10807
我祖	-10808
所予	-10809
所製	-10810
提人	-10811
提多	-10812
提甯	-10813
撒拔	-10814
旋返	-10815
既屆	-10816
日出	-10817
時日	-10818
書達	-10819
有智	-10820
松木	-10821
果腹	-10822
永世	-10823
決志	-10824
波斯	-10825
波羅	-10826
注意	-10827
滅爾	-10828
潛伏	-10829
濟河	-10830
灌奠	-10831
灌溉	-10832
火於	-10833
為奴	-10834
為愚	-10835
為民	-10836
無論	-10837
營中	-10838
牧羊	-10839
物產	-10840
獲之	-10841
獲榮	-10842
玷污	-10843
理之	-10844
瑪代	-10845
田疇	-10846
由信	-10847
癱瘋	-10848
盡心	-10849
相爭	-10850
眷聚	-10851
知者	-10852
硫磺	-10853
磯倫	-10854
祝之	-10855
禱告	-10856
禾稼	-10857
秉權	-10858
秘奧	-10859
穀酒	-10860
窪地	-10861
立我	-10862
米甲	-10863
約蘭	-10864
結盟	-10865
統轄	-10866
緘口	-10867
羅罕	-10868
羅非	-10869
羞愧	-10870
聞爾	-10871
背我	-10872
胡底	-10873
能之	-10874
至其	-10875
航海	-10876
若火	-10877
草芥	-10878
荏弱	-10879
萌芽	-10880
萬世	-10881
葬之	-10882
蒙首	-10883
蔭下	-10884
處於	-10885
號哭	-10886
行詐	-10887
衝突	-10888
衣服	-10889
衷懷	-10890
見絕	-10891
觀其	-10892
言誑	-10893
設筵	-10894
詣之	-10895
誘之	-10896
諸州	-10897
諸木	-10898
證之	-10899
谷之	-10900
負重	-10901
貸金	-10902
赦之	-10903
起立	-10904
踐之	-10905
身之	-10906
車馬	-10907
迄今	-10908
過犯	-10909
道者	-10910
道而	-10911
違爾	-10912
門前	-10913
閽人	-10914
附之	-10915
降雨	-10916
陰翳	-10917
隕亡	-10918
雛鴿	-10919
靈也	-10920
預示	-10921
驕泰	-10922
鳲鳩	-10923
afo	-10924
bab	-10925
ben	-10926
bun	-10927
dar	-10928
dim	-10929
lot	-10930
mea	-10931
mon	-10932
peɛ	-10933
pii	-10934
▁er	-10935
▁or	-10936
▁一在	-10937
▁不敢	-10938
▁且爾	-10939
▁乃依	-10940
▁享壽	-10941
▁他施	-10942
▁以奉	-10943
▁以己	-10944
▁以得	-10945
▁以行	-10946
▁伸手	-10947
▁何由	-10948
▁使彼	-10949
▁使眾	-10950
▁僉曰	-10951
▁其僕	-10952
▁其力	-10953
▁其門	-10954
▁出於	-10955
▁列王	-10956
▁則將	-10957
▁則彼	-10958
▁勿容	-10959
▁即此	-10960
▁又取	-10961
▁又謂	-10962
▁及於	-10963
▁可往	-10964
▁可拉	-10965
▁各有	-10966
▁同於	-10967
▁哈馬	-10968
▁問曰	-10969
▁如何	-10970
▁宜聽	-10971
▁將以	-10972
▁尚有	-10973
▁巴尼	-10974
▁巴錄	-10975
▁強暴	-10976
▁彼皆	-10977
▁彼等	-10978
▁後歷	-10979
▁必因	-10980
▁必獻	-10981
▁恐爾	-10982
▁我望	-10983
▁我由	-10984
▁既入	-10985
▁既已	-10986
▁既為	-10987
▁月朔	-10988
▁此在	-10989
▁民乃	-10990
▁波濤	-10991
▁爾居	-10992
▁爾素	-10993
▁爾雖	-10994
▁牛二	-10995
▁疫癘	-10996
▁眾乃	-10997
▁瞽者	-10998
▁緣其	-10999
▁而己	-11000
▁能力	-11001
▁自彼	-11002
▁至三	-11003
▁致彼	-11004
▁舉目	-11005
▁萬民	-11006
▁誰為	-11007
▁迨爾	-11008
▁邑中	-11009
▁騎兵	-11010
三百人	-11011
上帝乎	-11012
上帝匱	-11013
不信者	-11014
不得入	-11015
不知其	-11016
中之鳥	-11017
之以金	-11018
之於獄	-11019
乎上帝	-11020
亦若是	-11021
伯示麥	-11022
供事之	-11023
侮慢者	-11024
信上帝	-11025
先知也	-11026
其子女	-11027
其所許	-11028
其故土	-11029
其生命	-11030
其門徒	-11031
利乏音	-11032
利亞子	-11033
十二徒	-11034
向上帝	-11035
基伊拉	-11036
大利烏	-11037
大祭司	-11038
天上之	-11039
子亞瑪	-11040
子約蘭	-11041
就之曰	-11042
居民歟	-11043
希臘人	-11044
從我言	-11045
憾我者	-11046
我之言	-11047
我所賜	-11048
所言之	-11049
拉撒路	-11050
拯救兮	-11051
提甯人	-11052
撒拉旦	-11053
於彼者	-11054
於死亡	-11055
於眾前	-11056
於邑門	-11057
月二十	-11058
波阿斯	-11059
為爾僕	-11060
爾之信	-11061
爾為業	-11062
瑪哈念	-11063
異象中	-11064
當行之	-11065
稱之為	-11066
罪而死	-11067
者之心	-11068
而予之	-11069
而出之	-11070
而居之	-11071
而攻之	-11072
而誓曰	-11073
耶書亞	-11074
耶洗別	-11075
與上帝	-11076
與我儕	-11077
與爾言	-11078
許之願	-11079
謳歌者	-11080
賜我之	-11081
迦伯農	-11082
遣使見	-11083
首生之	-11084
amek	-11085
diiɛ	-11086
duam	-11087
duki	-11088
liba	-11089
niel	-11090
pare	-11091
rebe	-11092
seba	-11093
tifo	-11094
toso	-11095
wiaa	-11096
▁dis	-11097
▁dɔɔ	-11098
▁etu	-11099
▁mak	-11100
▁nah	-11101
▁nnn	-11102
▁odu	-11103
▁rib	-11104
▁tuo	-11105
▁以奉事	-11106
▁以精金	-11107
▁伊利亞	-11108
▁伯特利	-11109
▁作惡者	-11110
▁原文作	-11111
▁大利烏	-11112
▁大衛在	-11113
▁如其所	-11114
▁希斯崙	-11115
▁彼為我	-11116
▁必受詛	-11117
▁惟爾曹	-11118
▁惟耶穌	-11119
▁我之所	-11120
▁我使爾	-11121
▁我列祖	-11122
▁摩西與	-11123
▁故我必	-11124
▁故耶穌	-11125
▁然我儕	-11126
▁爾其慎	-11127
▁盈以香	-11128
▁約雅敬	-11129
▁義者之	-11130
▁而不得	-11131
▁耶穌在	-11132
▁金甌一	-11133
世世無盡	-11134
五十夫長	-11135
區別為聖	-11136
后以斯帖	-11137
哈拿尼雅	-11138
因耶和華	-11139
大聲而呼	-11140
奴隸之室	-11141
子所羅門	-11142
子約阿施	-11143
寄名之所	-11144
摩西所命	-11145
眾祭司長	-11146
祭司之職	-11147
祭司撒督	-11148
耶路巴力	-11149
臨產之婦	-11150
錫嘏於爾	-11151
butuw	-11152
hodwo	-11153
kyɛre	-11154
mafoɔ	-11155
sofoɔ	-11156
uadeɛ	-11157
▁abuo	-11158
▁asum	-11159
▁bewu	-11160
▁dade	-11161
▁eguu	-11162
▁esia	-11163
▁fraa	-11164
▁kuru	-11165
▁mabu	-11166
▁mebɛ	-11167
▁mpon	-11168
▁osii	-11169
▁peor	-11170
▁repɛ	-11171
▁resu	-11172
▁selo	-11173
▁sora	-11174
▁teko	-11175
▁tera	-11176
▁wamm	-11177
▁yair	-11178
▁yopa	-11179
▁ɔbae	-11180
▁ɔpam	-11181
▁ɔsaa	-11182
▁ɔtie	-11183
▁ɔtɔn	-11184
▁ɔtɔɔ	-11185
▁ɛmma	-11186
▁三分之一	-11187
▁亞爸拉罕	-11188
▁依其名數	-11189
▁其聽我言	-11190
▁哈拿尼雅	-11191
▁在耶和華	-11192
▁大聲呼曰	-11193
▁彼之軍旅	-11194
▁我為爾敵	-11195
▁斯亦虛空	-11196
▁焚之於壇	-11197
▁爰及子孫	-11198
▁爾之慈惠	-11199
▁爾所知也	-11200
▁牡山羊五	-11201
▁牡綿羊五	-11202
▁祭司亞倫	-11203
▁羅波安王	-11204
▁耶和華已	-11205
▁越至三日	-11206
▁遂謂之曰	-11207
七十舍客勒	-11208
子以利亞撒	-11209
尼布撒拉旦	-11210
為耶和華所	-11211
dukifo	-11212
dwenee	-11213
frafoɔ	-11214
hinhim	-11215
weaseɛ	-11216
yerɛne	-11217
▁adɔna	-11218
▁afide	-11219
▁akusa	-11220
▁akyen	-11221
▁akɔka	-11222
▁antia	-11223
▁asɛde	-11224
▁atant	-11225
▁baana	-11226
▁bagua	-11227
▁beduu	-11228
▁beria	-11229
▁binim	-11230
▁bɛfaa	-11231
▁bɛpam	-11232
▁bɛtim	-11233
▁dagon	-11234
▁dedan	-11235
▁habel	-11236
▁hamor	-11237
▁hasar	-11238
▁hefer	-11239
▁husai	-11240
▁kedar	-11241
▁kohuu	-11242
▁kukuo	-11243
▁kyene	-11244
▁lamek	-11245
▁manni	-11246
▁mesan	-11247
▁mesii	-11248
▁mmɛbɛ	-11249
▁monsi	-11250
▁nkɔdi	-11251
▁nkɔka	-11252
▁nnuan	-11253
▁nnyaa	-11254
▁nsesa	-11255
▁nsɔfo	-11256
▁ntene	-11257
▁okunu	-11258
▁pamee	-11259
▁pasur	-11260
▁penee	-11261
▁rahab	-11262
▁rehob	-11263
▁renhu	-11264
▁renkɔ	-11265
▁ribla	-11266
▁tabor	-11267
▁teteɛ	-11268
▁tonto	-11269
▁woapa	-11270
▁woato	-11271
▁wompɛ	-11272
▁wosow	-11273
▁wotee	-11274
▁wotwe	-11275
▁wɔhwe	-11276
▁wɔnya	-11277
▁wɔnyi	-11278
▁yeduu	-11279
▁yenni	-11280
▁yeraw	-11281
▁ɔhwee	-11282
▁ɔkɛse	-11283
▁ɔnnni	-11284
▁ɔnyɛɛ	-11285
▁ɔpeha	-11286
▁ɔredi	-11287
▁ɔsɛee	-11288
▁ɔtwaa	-11289
▁ɛkata	-11290
▁ɛkyɛm	-11291
▁ɛreyɛ	-11292
▁大衛與從者	-11293
▁耶和華之神	-11294
▁耶和華為我	-11295
拿撒勒人耶穌	-11296
duampɔn	-11297
dwumfoɔ	-11298
rimanom	-11299
▁abubuo	-11300
▁adɔfoɔ	-11301
▁ahosan	-11302
▁akanea	-11303
▁ampene	-11304
▁anania	-11305
▁apakye	-11306
▁asanku	-11307
▁asieeɛ	-11308
▁asonse	-11309
▁atɛkyɛ	-11310
▁ayɔnko	-11311
▁duruiɛ	-11312
▁elifas	-11313
▁gersom	-11314
▁hankra	-11315
▁kraman	-11316
▁kukuwa	-11317
▁matena	-11318
▁menyɛɛ	-11319
▁meyɛeɛ	-11320
▁minnya	-11321
▁misuro	-11322
▁morekɔ	-11323
▁moreyɛ	-11324
▁mɛbisa	-11325
▁nantin	-11326
▁nhunuu	-11327
▁nsabuo	-11328
▁ntoaeɛ	-11329
▁owufoɔ	-11330
▁rekɔyɛ	-11331
▁somafo	-11332
▁sumina	-11333
▁wafiri	-11334
▁wannye	-11335
▁wasane	-11336
▁wɔgyee	-11337
▁wɔkaeɛ	-11338
▁wɔnnie	-11339
▁wɔpaee	-11340
▁wɔsoaa	-11341
▁yɛrebɛ	-11342
▁ɔmpata	-11343
▁ɔnsane	-11344
▁ɔntumi	-11345
▁ɔpanin	-11346
▁ɔrewuo	-11347
▁ɔtotoo	-11348
▁ɔyiyii	-11349
▁ɛmpare	-11350
▁一歲之牡羔五	-11351
▁其聽耶和華言	-11352
▁更獻牡山羊一	-11353
一百三十舍客勒	-11354
▁aboadeɛ	-11355
▁abɛhyia	-11356
▁afoforɔ	-11357
▁ahotefo	-11358
▁ahoyera	-11359
▁apontow	-11360
▁asotire	-11361
▁asutene	-11362
▁bebrebe	-11363
▁bɛkotow	-11364
▁gyegyeɛ	-11365
▁hwerɛma	-11366
▁isboset	-11367
▁moannye	-11368
▁moatumi	-11369
▁mpemnan	-11370
▁mpintin	-11371
▁mugyina	-11372
▁nkariiɛ	-11373
▁nnawuro	-11374
▁nsankuo	-11375
▁nsiesie	-11376
▁ntampeɛ	-11377
▁oholiba	-11378
▁remalia	-11379
▁salmuna	-11380
▁sefatia	-11381
▁wakyerɛ	-11382
▁woremma	-11383
▁wosusuw	-11384
▁wɔasoma	-11385
▁wɔnsane	-11386
▁wɔrente	-11387
▁yɛremfa	-11388
▁ɔdebɔne	-11389
▁ɔhoɔden	-11390
▁ɛbɛtena	-11391
▁以色列之上帝云	-11392
▁aboɔpono	-11393
▁ahokyerɛ	-11394
▁ahuhufoɔ	-11395
▁akunafoɔ	-11396
▁gyinabea	-11397
▁hintidua	-11398
▁israelni	-11399
▁mahanaim	-11400
▁makyerɛw	-11401
▁mehwehwɛ	-11402
▁mpokyerɛ	-11403
▁nhyerɛne	-11404
▁nsakyera	-11405
▁nteɛteɛm	-11406
▁sadukifo	-11407
▁sealtiel	-11408
▁suntidua	-11409
▁wobɛsane	-11410
▁wubetumi	-11411
▁wɔkɔfrɛɛ	-11412
▁ɔsiesiee	-11413
▁ɔtwitwaa	-11414
▁爾其頌美耶和華兮	-11415
▁ahanwɔtwe	-11416
▁mmaransɛm	-11417
▁mmusuakuw	-11418
▁monsiesie	-11419
▁nkwaseafo	-11420
▁nsɔfokwaa	-11421
▁worentumi	-11422
▁wɔahyehyɛ	-11423
▁wɔboaboaa	-11424
▁wɔhwehwɛɛ	-11425
▁wɔnhwehwɛ	-11426
▁ɔrehwehwɛ	-11427
▁anifirafoɔ	-11428
▁asukɔtweaa	-11429
▁atantanneɛ	-11430
▁nyaatwomfo	-11431
▁teneneefoɔ	-11432
▁aduhwamhyeɛ	-11433
▁tweaduampɔn	-11434
▁wobisabisaa	-11435
▁nkantankoraa	-11436
▁safohempanin	-11437
▁乳	-11438
▁勤	-11439
▁吞	-11440
▁嘗	-11441
▁委	-11442
▁展	-11443
▁巨	-11444
▁度	-11445
▁形	-11446
▁憂	-11447
▁抹	-11448
▁拜	-11449
▁擇	-11450
▁敗	-11451
▁災	-11452
▁產	-11453
▁盈	-11454
▁籲	-11455
▁罔	-11456
▁薩	-11457
▁虐	-11458
▁詢	-11459
▁證	-11460
▁輪	-11461
▁量	-11462
▁駝	-11463
▁魚	-11464
▁默	-11465
一區	-11466
不朽	-11467
不法	-11468
不行	-11469
不許	-11470
中無	-11471
之值	-11472
之刃	-11473
之浸	-11474
之爐	-11475
之牛	-11476
之禮	-11477
之製	-11478
乖謬	-11479
事者	-11480
五日	-11481
五月	-11482
亦可	-11483
亦死	-11484
仁義	-11485
以後	-11486
以致	-11487
以靈	-11488
伏地	-11489
傾耳	-11490
元年	-11491
光之	-11492
入時	-11493
入營	-11494
入覲	-11495
內殿	-11496
其夫	-11497
其往	-11498
其權	-11499
其諸	-11500
其途	-11501
其鄰	-11502
凡七	-11503
出至	-11504
判司	-11505
利尼	-11506
則喜	-11507
加諸	-11508
勝之	-11509
勞者	-11510
匪徒	-11511
博士	-11512
即此	-11513
及於	-11514
各州	-11515
同席	-11516
哈蘭	-11517
嘟𡀲	-11518
回顧	-11519
圍之	-11520
坦途	-11521
垣墉	-11522
夏甲	-11523
多也	-11524
多國	-11525
多有	-11526
大也	-11527
大拉	-11528
奇行	-11529
女王	-11530
如彼	-11531
妄誕	-11532
婚筵	-11533
孤子	-11534
完全	-11535
害之	-11536
家人	-11537
寰宇	-11538
將見	-11539
尋之	-11540
少年	-11541
就而	-11542
巖穴	-11543
幔利	-11544
座前	-11545
弗拉	-11546
張幕	-11547
往而	-11548
律兮	-11549
律者	-11550
思之	-11551
恩惠	-11552
愚昧	-11553
愧恥	-11554
慘怛	-11555
慧心	-11556
我不	-11557
我口	-11558
我往	-11559
我榮	-11560
我與	-11561
戰爭	-11562
折之	-11563
拉密	-11564
提拉	-11565
揚之	-11566
揚帆	-11567
文士	-11568
於以	-11569
於城	-11570
於左	-11571
於衢	-11572
既沒	-11573
日久	-11574
昂首	-11575
明晨	-11576
易多	-11577
有光	-11578
有若	-11579
未知	-11580
杜蘭	-11581
杜頓	-11582
核之	-11583
欣嫩	-11584
歌珥	-11585
歎息	-11586
死而	-11587
母利	-11588
民前	-11589
民間	-11590
污穢	-11591
決意	-11592
沙瑪	-11593
治我	-11594
洶湧	-11595
溪濱	-11596
火中	-11597
為火	-11598
無可	-11599
無數	-11600
爾境	-11601
爾而	-11602
爾與	-11603
猶不	-11604
瑪拉	-11605
環我	-11606
田間	-11607
由爾	-11608
痛哭	-11609
發忿	-11610
盜賊	-11611
石擊	-11612
祝謝	-11613
禍矣	-11614
窒礙	-11615
米煞	-11616
約乃	-11617
約帕	-11618
納貢	-11619
細枲	-11620
細耳	-11621
給以	-11622
綠樹	-11623
羅底	-11624
羊毛	-11625
者勿	-11626
而發	-11627
而觀	-11628
肝網	-11629
能以	-11630
膝草	-11631
自北	-11632
自幼	-11633
自相	-11634
至我	-11635
至終	-11636
至高	-11637
舒蕊	-11638
落於	-11639
蒞臨	-11640
行事	-11641
被戮	-11642
裂衣	-11643
裨益	-11644
見有	-11645
見義	-11646
見起	-11647
訟之	-11648
試之	-11649
話柄	-11650
諭之	-11651
諸言	-11652
諸邦	-11653
謂爾	-11654
赦矣	-11655
足前	-11656
足矣	-11657
路旁	-11658
辟拉	-11659
迫我	-11660
逃避	-11661
遍地	-11662
過於	-11663
遺棄	-11664
錄於	-11665
錫之	-11666
錫以	-11667
降詔	-11668
陸地	-11669
集其	-11670
離彼	-11671
飲水	-11672
餱糧	-11673
鴻慈	-11674
鼓掌	-11675
bni	-11676
fɔn	-11677
kol	-11678
moɔ	-11679
oam	-11680
pro	-11681
rai	-11682
rat	-11683
saf	-11684
sem	-11685
wae	-11686
wet	-11687
ɛwa	-11688
▁ri	-11689
▁ro	-11690
▁乃往	-11691
▁乃指	-11692
▁亞他	-11693
▁亞伯	-11694
▁亦皆	-11695
▁人因	-11696
▁以應	-11697
▁以治	-11698
▁伊於	-11699
▁伊施	-11700
▁但爾	-11701
▁偕我	-11702
▁入於	-11703
▁六日	-11704
▁其權	-11705
▁其水	-11706
▁其班	-11707
▁其罪	-11708
▁其血	-11709
▁其行	-11710
▁其足	-11711
▁其面	-11712
▁凡我	-11713
▁凡捫	-11714
▁則懼	-11715
▁則謂	-11716
▁勿使	-11717
▁即昔	-11718
▁及厥	-11719
▁取爾	-11720
▁向之	-11721
▁向我	-11722
▁啦吡	-11723
▁地震	-11724
▁境內	-11725
▁奚為	-11726
▁如獻	-11727
▁將為	-11728
▁將見	-11729
▁巴拉	-11730
▁希幔	-11731
▁底但	-11732
▁彼即	-11733
▁待其	-11734
▁後則	-11735
▁得毋	-11736
▁必將	-11737
▁必成	-11738
▁必由	-11739
▁必被	-11740
▁惟在	-11741
▁惟於	-11742
▁意欲	-11743
▁我惟	-11744
▁我日	-11745
▁我靈	-11746
▁或於	-11747
▁或有	-11748
▁投於	-11749
▁拿答	-11750
▁故其	-11751
▁既聞	-11752
▁昆弟	-11753
▁暗嫩	-11754
▁暗蘭	-11755
▁曷故	-11756
▁有曰	-11757
▁此亦	-11758
▁死亡	-11759
▁毀滅	-11760
▁沙龍	-11761
▁焉能	-11762
▁無可	-11763
▁爾尚	-11764
▁爾悉	-11765
▁爾母	-11766
▁爾眾	-11767
▁王之	-11768
▁瑪迦	-11769
▁用以	-11770
▁當取	-11771
▁眾人	-11772
▁知其	-11773
▁給以	-11774
▁繕寫	-11775
▁而往	-11776
▁而返	-11777
▁至其	-11778
▁致可	-11779
▁若以	-11780
▁莫能	-11781
▁藏於	-11782
▁見有	-11783
▁貧者	-11784
▁較前	-11785
▁遂遣	-11786
▁邑門	-11787
▁野獸	-11788
▁長老	-11789
▁陰府	-11790
▁非因	-11791
▁非為	-11792
之以刃	-11793
之子女	-11794
之昆弟	-11795
之約翰	-11796
之首日	-11797
亞嫩谷	-11798
亞比雅	-11799
亞西亞	-11800
人之心	-11801
以之為	-11802
以革倫	-11803
伯和崙	-11804
來之事	-11805
入會幕	-11806
公義之	-11807
其中者	-11808
其地曰	-11809
利比拉	-11810
四百人	-11811
在我前	-11812
基督而	-11813
大衛家	-11814
子亞哈	-11815
子以撒	-11816
安在哉	-11817
安得烈	-11818
巴拉巴	-11819
從其言	-11820
我父家	-11821
所愛者	-11822
所有之	-11823
拿俄米	-11824
於以東	-11825
於我也	-11826
於爾之	-11827
於耶穌	-11828
有數卷	-11829
橄欖山	-11830
法提雅	-11831
法老曰	-11832
波斯王	-11833
洗革拉	-11834
流便人	-11835
為其王	-11836
為大衛	-11837
爇以火	-11838
父大衛	-11839
牲之血	-11840
畏上帝	-11841
當應曰	-11842
益之有	-11843
目睹之	-11844
知之矣	-11845
祈禱時	-11846
者之聲	-11847
而不能	-11848
而行者	-11849
自以為	-11850
自而來	-11851
蒙悅納	-11852
血於壇	-11853
西乃野	-11854
言之使	-11855
訓詞兮	-11856
謂爾曰	-11857
輸其一	-11858
轉離其	-11859
長老曰	-11860
鬼所附	-11861
dron	-11862
elio	-11863
fomm	-11864
goro	-11865
gyew	-11866
hiaa	-11867
imfo	-11868
mmoa	-11869
sand	-11870
soaa	-11871
sosɔ	-11872
tafi	-11873
tafo	-11874
teni	-11875
turu	-11876
tɔre	-11877
wire	-11878
yere	-11879
▁bon	-11880
▁him	-11881
▁kar	-11882
▁naa	-11883
▁sab	-11884
▁tom	-11885
▁tɔe	-11886
▁usi	-11887
▁yit	-11888
▁ɔhu	-11889
▁一無所	-11890
▁俄巴底	-11891
▁俱盈以	-11892
▁全能者	-11893
▁大馬色	-11894
▁尼陀法	-11895
▁希伯倫	-11896
▁我見其	-11897
▁拿俄米	-11898
▁既言此	-11899
▁為我之	-11900
▁烏利亞	-11901
▁相語曰	-11902
▁耶書亞	-11903
▁耶穌自	-11904
▁耶穌遂	-11905
▁自埃及	-11906
▁與丁男	-11907
▁銀盂一	-11908
▁銀盤一	-11909
▁非爾所	-11910
上帝之榮	-11911
之猶太人	-11912
亞伯尼歌	-11913
亞斯他錄	-11914
利巴嫩之	-11915
基列耶琳	-11916
大而可畏	-11917
希伯來人	-11918
得拉米煞	-11919
懷妊生子	-11920
我所愛者	-11921
所生之子	-11922
撒迦利亞	-11923
撒迦利雅	-11924
斯土之民	-11925
歡欣喜樂	-11926
為其上帝	-11927
禱告祈求	-11928
耶布斯人	-11929
脫於其手	-11930
荊棘蒺藜	-11931
誤殺人者	-11932
非利士地	-11933
麥基洗德	-11934
麵一伊法	-11935
akɛse	-11936
anteɛ	-11937
bedeo	-11938
duani	-11939
dutun	-11940
elike	-11941
fehad	-11942
mawet	-11943
mfiri	-11944
nelio	-11945
paemu	-11946
piani	-11947
senee	-11948
sopam	-11949
tarot	-11950
▁abel	-11951
▁ahoa	-11952
▁alek	-11953
▁ansi	-11954
▁ansɔ	-11955
▁asoɛ	-11956
▁awɔw	-11957
▁beor	-11958
▁bɛku	-11959
▁bɛpo	-11960
▁bɛwo	-11961
▁dwen	-11962
▁ebed	-11963
▁ekuo	-11964
▁fata	-11965
▁fira	-11966
▁kili	-11967
▁kita	-11968
▁maha	-11969
▁masɔ	-11970
▁mena	-11971
▁mfrɛ	-11972
▁mfɛn	-11973
▁mɛsi	-11974
▁neko	-11975
▁nkun	-11976
▁nnwo	-11977
▁paee	-11978
▁sɔfo	-11979
▁wosi	-11980
▁wɔgu	-11981
▁wɔko	-11982
▁ɔfom	-11983
▁ɔpem	-11984
▁ɛkae	-11985
▁ɛnsi	-11986
▁ɛtoɔ	-11987
▁亞多尼雅	-11988
▁以為燔祭	-11989
▁以色列中	-11990
▁伊於胡底	-11991
▁及瑪拿西	-11992
▁大衛之裔	-11993
▁宜頌美焉	-11994
▁循其宗族	-11995
▁我之上帝	-11996
▁我兄弟乎	-11997
▁我將使爾	-11998
▁昔耶和華	-11999
▁植葡萄園	-12000
▁爾之子女	-12001
▁爾其號咷	-12002
▁當告之曰	-12003
▁祭司察之	-12004
▁耶和華怒	-12005
▁耶穌答曰	-12006
▁蓋上帝之	-12007
▁西門彼得	-12008
上帝之子也	-12009
之以色列人	-12010
五十舍客勒	-12011
告以色列族	-12012
建耶和華室	-12013
往耶路撒冷	-12014
擊非利士人	-12015
耶利米之言	-12016
自耶路撒冷	-12017
dwofoɔ	-12018
hyehye	-12019
hyɛfoɔ	-12020
pansam	-12021
▁abere	-12022
▁aboro	-12023
▁aborɔ	-12024
▁abɛfa	-12025
▁abɛsi	-12026
▁adeyɛ	-12027
▁adɔre	-12028
▁ahoma	-12029
▁akɔne	-12030
▁akɔyɛ	-12031
▁anika	-12032
▁apolo	-12033
▁bedii	-12034
▁betwa	-12035
▁bilha	-12036
▁bobom	-12037
▁bɛnta	-12038
▁bɛtoo	-12039
▁bɛwie	-12040
▁dwene	-12041
▁eglon	-12042
▁hagai	-12043
▁harim	-12044
▁heber	-12045
▁hinom	-12046
▁huram	-12047
▁hwiee	-12048
▁kipro	-12049
▁kodii	-12050
▁kotow	-12051
▁kyini	-12052
▁kɔhwɛ	-12053
▁kɔkoe	-12054
▁matie	-12055
▁mesom	-12056
▁meyɛe	-12057
▁mforo	-12058
▁milka	-12059
▁mmɛbɔ	-12060
▁mpare	-12061
▁mɛtua	-12062
▁nenam	-12063
▁nkorɔ	-12064
▁nkɔso	-12065
▁nnade	-12066
▁nnwam	-12067
▁nseku	-12068
▁ntete	-12069
▁paran	-12070
▁rente	-12071
▁resin	-12072
▁retie	-12073
▁susuw	-12074
▁tetew	-12075
▁wakum	-12076
▁wobɛn	-12077
▁wonte	-12078
▁wotuu	-12079
▁wɔasa	-12080
▁wɔdie	-12081
▁wɔfae	-12082
▁wɔguu	-12083
▁wɔsen	-12084
▁wɔteɛ	-12085
▁yaree	-12086
▁yaser	-12087
▁yenya	-12088
▁yerae	-12089
▁yɛfaa	-12090
▁yɛkaa	-12091
▁yɛnka	-12092
▁ɔhyew	-12093
▁ɔkata	-12094
▁ɔkora	-12095
▁ɔnkum	-12096
▁ɔnnom	-12097
▁ɔtare	-12098
▁ɛdeda	-12099
▁在耶和華室	-12100
▁必絕於民中	-12101
▁為以色列王	-12102
▁眾民當應曰	-12103
亞摩利王西宏	-12104
猶大王西底家	-12105
耶和華之榮光	-12106
行耶和華所悅	-12107
krankyi	-12108
torɔtɔɔ	-12109
▁abereɛ	-12110
▁abiram	-12111
▁abodwo	-12112
▁adulam	-12113
▁amonni	-12114
▁aniteɛ	-12115
▁ansɔre	-12116
▁arabia	-12117
▁awuraa	-12118
▁bɔneyɛ	-12119
▁bɛtwam	-12120
▁egyina	-12121
▁felike	-12122
▁fitafi	-12123
▁hyehye	-12124
▁kidron	-12125
▁kyekyɛ	-12126
▁kɔntɔn	-12127
▁kɔtena	-12128
▁masoma	-12129
▁matumi	-12130
▁mebobɔ	-12131
▁mesane	-12132
▁mobɛkɔ	-12133
▁mobɛte	-12134
▁mohunu	-12135
▁mommmɔ	-12136
▁monnie	-12137
▁monsɛe	-12138
▁mpɛɛwa	-12139
▁mɛkasa	-12140
▁mɛsɔre	-12141
▁ngusoɔ	-12142
▁nhahan	-12143
▁ntanka	-12144
▁ntoman	-12145
▁otniel	-12146
▁sianee	-12147
▁sumpii	-12148
▁taaboɔ	-12149
▁trɛwee	-12150
▁tukorɔ	-12151
▁woanka	-12152
▁wobuae	-12153
▁wogyaw	-12154
▁wɔafrɛ	-12155
▁wɔaguo	-12156
▁wɔante	-12157
▁wɔbɛto	-12158
▁wɔbɛyi	-12159
▁wɔntwe	-12160
▁wɔrepɛ	-12161
▁yedaia	-12162
▁yɛbɛkɔ	-12163
▁ɔbɛhyɛ	-12164
▁ɔtenee	-12165
▁ɛkɔpem	-12166
▁ɛmfata	-12167
▁ɛredɛw	-12168
▁嫩之子約書亞	-12169
▁瑪拿西半支派	-12170
▁耶和華諭之曰	-12171
▁耶路撒冷居民	-12172
▁重七十舍客勒	-12173
以色列人出埃及	-12174
▁adagyew	-12175
▁adwadeɛ	-12176
▁ahintaw	-12177
▁ahoahoa	-12178
▁ahodwan	-12179
▁ahofadi	-12180
▁ahokeka	-12181
▁akunkum	-12182
▁akɔmfoɔ	-12183
▁apaadeɛ	-12184
▁astarot	-12185
▁berekia	-12186
▁biribie	-12187
▁busuani	-12188
▁bɛdwiri	-12189
▁dwumadi	-12190
▁kunafoɔ	-12191
▁mabɛtwe	-12192
▁monnhyɛ	-12193
▁mpiafoɔ	-12194
▁munnyae	-12195
▁mususuw	-12196
▁netanel	-12197
▁nsuyire	-12198
▁ntokuro	-12199
▁onyanee	-12200
▁sebedeo	-12201
▁tirinwi	-12202
▁turodoo	-12203
▁wamfiri	-12204
▁wantumi	-12205
▁wosowee	-12206
▁wɔatete	-12207
▁wɔawuwu	-12208
▁wɔkɔtoo	-12209
▁wɔnkɔfa	-12210
▁wɔsuroo	-12211
▁yedutun	-12212
▁yonadab	-12213
▁ɔbɛdane	-12214
▁ɔtorofo	-12215
▁ɛhyerɛn	-12216
▁其班二萬四千人	-12217
▁萬軍之主耶和華	-12218
得拉米煞亞伯尼歌	-12219
kurukyire	-12220
▁abinadab	-12221
▁adansedi	-12222
▁akwansra	-12223
▁aleksand	-12224
▁bɛhwehwɛ	-12225
▁dwennini	-12226
▁kornelio	-12227
▁mehunuiɛ	-12228
▁monhyɛne	-12229
▁nsususoɔ	-12230
▁nwansena	-12231
▁susuhoma	-12232
▁wɔadwane	-12233
▁wɔbɛdane	-12234
▁wɔbɛtotɔ	-12235
▁ɔdanseni	-12236
▁ɔkwatani	-12237
▁俱盈以和油之細麵	-12238
▁耶和華諭約書亞曰	-12239
▁耶和華諭耶利米曰	-12240
▁重一百三十舍客勒	-12241
▁adanedane	-12242
▁adwumaden	-12243
▁anisoadeɛ	-12244
▁butubutuu	-12245
▁duraduraa	-12246
▁gersonfoɔ	-12247
▁mmɔborɔfo	-12248
▁nankoroma	-12249
▁nkuranhyɛ	-12250
▁nsubɔnhwa	-12251
▁selofehad	-12252
▁susukoraa	-12253
▁tɔtorɔtɔɔ	-12254
▁wɔbɛkyere	-12255
▁ɔbaakofoɔ	-12256
▁akɛseakɛse	-12257
▁ɔsunsuanee	-12258
▁gyinagyinaa	-12259
▁wɔakyekyere	-12260
▁ɔdebɔneyɛni	-12261
▁mfunumupɔnkɔ	-12262
▁ɔkyerɛkyerɛɛ	-12263
▁亭	-12264
▁侵	-12265
▁修	-12266
▁償	-12267
▁制	-12268
▁剝	-12269
▁君	-12270
▁含	-12271
▁園	-12272
▁塗	-12273
▁失	-12274
▁奮	-12275
▁妻	-12276
▁履	-12277
▁工	-12278
▁平	-12279
▁彰	-12280
▁怒	-12281
▁抱	-12282
▁數	-12283
▁會	-12284
▁枝	-12285
▁渴	-12286
▁等	-12287
▁答	-12288
▁羣	-12289
▁臥	-12290
▁貧	-12291
▁赫	-12292
▁送	-12293
▁遲	-12294
▁鞭	-12295
▁飾	-12296
▁饋	-12297
七倍	-12298
丈夫	-12299
不堪	-12300
不息	-12301
不聞	-12302
不自	-12303
之位	-12304
之價	-12305
之始	-12306
之巨	-12307
之獸	-12308
之穴	-12309
之繩	-12310
之身	-12311
之食	-12312
事爾	-12313
二王	-12314
亞當	-12315
亡乎	-12316
人畜	-12317
令我	-12318
以居	-12319
以行	-12320
位之	-12321
何意	-12322
何故	-12323
何物	-12324
何珥	-12325
何由	-12326
來攻	-12327
來此	-12328
來見	-12329
信爾	-12330
僕從	-12331
入膚	-12332
全國	-12333
八千	-12334
八萬	-12335
其二	-12336
其境	-12337
其日	-12338
其時	-12339
其業	-12340
其門	-12341
出邑	-12342
分蹄	-12343
初胎	-12344
利斯	-12345
力士	-12346
加害	-12347
勞苦	-12348
勸勉	-12349
勿懼	-12350
化為	-12351
十六	-12352
卑者	-12353
厥志	-12354
去我	-12355
及羔	-12356
取血	-12357
受刑	-12358
各一	-12359
同族	-12360
名譽	-12361
呻吟	-12362
哈大	-12363
哈抹	-12364
善也	-12365
善矣	-12366
喪膽	-12367
在山	-12368
在田	-12369
在野	-12370
坐我	-12371
壇前	-12372
奇其	-12373
如我	-12374
如故	-12375
如爾	-12376
存之	-12377
存者	-12378
家主	-12379
密雲	-12380
寬廣	-12381
將自	-12382
尊逮	-12383
小者	-12384
尤為	-12385
屆期	-12386
屬爾	-12387
山麓	-12388
岡陵	-12389
巴旦	-12390
希雅	-12391
干戈	-12392
底謝	-12393
弒之	-12394
強大	-12395
強項	-12396
彼也	-12397
後者	-12398
徒勞	-12399
得成	-12400
得食	-12401
從事	-12402
復至	-12403
必至	-12404
恆業	-12405
恬靜	-12406
悅者	-12407
意欲	-12408
憂傷	-12409
我面	-12410
戚屬	-12411
戚族	-12412
戰事	-12413
所宜	-12414
抑鬱	-12415
拿轄	-12416
搖首	-12417
摩洛	-12418
據有	-12419
擾亂	-12420
效之	-12421
教之	-12422
斯族	-12423
斯眾	-12424
於空	-12425
日之	-12426
是言	-12427
更大	-12428
書於	-12429
束麻	-12430
東風	-12431
步卒	-12432
歲生	-12433
每日	-12434
水泉	-12435
水濱	-12436
永居	-12437
汲淪	-12438
治爾	-12439
法匱	-12440
法幕	-12441
波濤	-12442
浴盤	-12443
海沙	-12444
清潔	-12445
準繩	-12446
濯足	-12447
為敵	-12448
為罪	-12449
烏撒	-12450
無故	-12451
無業	-12452
熟之	-12453
燃火	-12454
營之	-12455
爭端	-12456
爭鬥	-12457
父曰	-12458
爾前	-12459
爾將	-12460
爾面	-12461
牝獅	-12462
牧之	-12463
狂妄	-12464
猶未	-12465
獲益	-12466
王亞	-12467
王前	-12468
甚遠	-12469
生時	-12470
當以	-12471
相偕	-12472
眾中	-12473
示每	-12474
神之	-12475
禽鳥	-12476
禾束	-12477
立者	-12478
築壘	-12479
維方	-12480
網羅	-12481
羅亞	-12482
羊之	-12483
者中	-12484
而信	-12485
而備	-12486
而守	-12487
而懼	-12488
而殺	-12489
而相	-12490
而造	-12491
而過	-12492
而飲	-12493
聖室	-12494
聖職	-12495
聰慧	-12496
聽訟	-12497
能者	-12498
臨於	-12499
自死	-12500
至今	-12501
至微	-12502
與人	-12503
與偕	-12504
與壇	-12505
與油	-12506
若獅	-12507
萊雅	-12508
蒙選	-12509
號筒	-12510
被逐	-12511
西卜	-12512
言及	-12513
設之	-12514
諸聖	-12515
諸誡	-12516
諸難	-12517
謂我	-12518
謊者	-12519
謹慎	-12520
警戒	-12521
警示	-12522
護軍	-12523
讀之	-12524
豐裕	-12525
豔麗	-12526
負之	-12527
踰越	-12528
轉向	-12529
追憶	-12530
進前	-12531
遣者	-12532
遵命	-12533
遺傳	-12534
邪僻	-12535
邪曲	-12536
銅海	-12537
鐵子	-12538
降於	-12539
院中	-12540
隱語	-12541
離散	-12542
順從	-12543
頑梗	-12544
顯現	-12545
風飄	-12546
飲其	-12547
首之	-12548
首領	-12549
鬼者	-12550
edi	-12551
fak	-12552
fia	-12553
haa	-12554
nea	-12555
pon	-12556
sei	-12557
sɛw	-12558
▁lu	-12559
▁一見	-12560
▁下至	-12561
▁不識	-12562
▁乃屬	-12563
▁今其	-12564
▁令其	-12565
▁以除	-12566
▁任爾	-12567
▁但今	-12568
▁何不	-12569
▁俱循	-12570
▁側耳	-12571
▁傾耳	-12572
▁入室	-12573
▁入爾	-12574
▁兵卒	-12575
▁其座	-12576
▁其色	-12577
▁其首	-12578
▁凡過	-12579
▁即為	-12580
▁又云	-12581
▁又作	-12582
▁又量	-12583
▁及居	-12584
▁及旦	-12585
▁可得	-12586
▁哈曼	-12587
▁哈琳	-12588
▁喜樂	-12589
▁因而	-12590
▁在田	-12591
▁地之	-12592
▁執兵	-12593
▁基遍	-12594
▁夏瑣	-12595
▁天國	-12596
▁如王	-12597
▁導之	-12598
▁小子	-12599
▁尚未	-12600
▁居彼	-12601
▁幽暗	-12602
▁庶民	-12603
▁彼已	-12604
▁彼於	-12605
▁彼豈	-12606
▁彼造	-12607
▁心利	-12608
▁悉為	-12609
▁惟求	-12610
▁感謝	-12611
▁我且	-12612
▁我因	-12613
▁我復	-12614
▁我恃	-12615
▁我昔	-12616
▁或在	-12617
▁戶珥	-12618
▁所得	-12619
▁拉伯	-12620
▁提幔	-12621
▁暗利	-12622
▁有二	-12623
▁服事	-12624
▁服役	-12625
▁此地	-12626
▁此室	-12627
▁此邑	-12628
▁歷程	-12629
▁毀爾	-12630
▁毋食	-12631
▁母示	-12632
▁永不	-12633
▁永為	-12634
▁決不	-12635
▁焚燬	-12636
▁爾及	-12637
▁爾罪	-12638
▁爾起	-12639
▁牡牛	-12640
▁牲畜	-12641
▁當守	-12642
▁眾曰	-12643
▁示羅	-12644
▁終則	-12645
▁綿羊	-12646
▁而為	-12647
▁而行	-12648
▁而被	-12649
▁耶歇	-12650
▁舉手	-12651
▁若輩	-12652
▁莫若	-12653
▁蓋以	-12654
▁藐視	-12655
▁行此	-12656
▁西巴	-12657
▁請聽	-12658
▁謂曰	-12659
▁起往	-12660
▁超乎	-12661
▁較之	-12662
▁迦特	-12663
▁追襲	-12664
▁遂召	-12665
▁遂命	-12666
▁遂攜	-12667
▁遂離	-12668
▁金銀	-12669
▁震怒	-12670
▁飛鳥	-12671
三千人	-12672
之崇邱	-12673
之支派	-12674
之於野	-12675
之族長	-12676
之軍旅	-12677
亞倫曰	-12678
亞撒黑	-12679
亞比該	-12680
亞衲族	-12681
以為業	-12682
何人斯	-12683
使者曰	-12684
入聖所	-12685
全能者	-12686
六十人	-12687
其父母	-12688
其臣僕	-12689
其足下	-12690
典章兮	-12691
利未族	-12692
參巴拉	-12693
告我曰	-12694
告民曰	-12695
呼之曰	-12696
四生物	-12697
因之而	-12698
基列之	-12699
如此之	-12700
如此也	-12701
子約押	-12702
尊逮卑	-12703
少者曰	-12704
崇拜之	-12705
從其類	-12706
惡者之	-12707
我列祖	-12708
我所言	-12709
我所諭	-12710
我為王	-12711
我維倍	-12712
所生者	-12713
所遺者	-12714
手所造	-12715
於其家	-12716
於列國	-12717
於我主	-12718
於我兮	-12719
於爾身	-12720
於發怒	-12721
施拯救	-12722
會眾前	-12723
油一欣	-12724
激我怒	-12725
為之證	-12726
為其民	-12727
為族長	-12728
為爾之	-12729
猶大與	-12730
生命之	-12731
異邦之	-12732
目中之	-12733
知上帝	-12734
知我乃	-12735
米甸人	-12736
索其命	-12737
者之中	-12738
而守之	-12739
而得者	-12740
而生者	-12741
致死亡	-12742
萬二千	-12743
萬民兮	-12744
行奇事	-12745
視為善	-12746
言而行	-12747
隨魯王	-12748
預言者	-12749
食而飽	-12750
bora	-12751
emaa	-12752
enai	-12753
fran	-12754
huhu	-12755
kyie	-12756
liel	-12757
meel	-12758
nnya	-12759
omer	-12760
reka	-12761
sifo	-12762
trɛɛ	-12763
wunu	-12764
wuru	-12765
ɔnee	-12766
▁bas	-12767
▁lis	-12768
▁par	-12769
▁pis	-12770
▁set	-12771
▁siw	-12772
▁yaf	-12773
▁yar	-12774
▁上帝不	-12775
▁上帝所	-12776
▁且我儕	-12777
▁且行且	-12778
▁乃上帝	-12779
▁亞基帕	-12780
▁以革倫	-12781
▁勿畏葸	-12782
▁及其餘	-12783
▁問安於	-12784
▁四周有	-12785
▁基督也	-12786
▁壯乃志	-12787
▁如爾不	-12788
▁巴拿巴	-12789
▁希實本	-12790
▁彼不得	-12791
▁我則曰	-12792
▁我必依	-12793
▁摩西以	-12794
▁攜之而	-12795
▁書拉密	-12796
▁毋作苦	-12797
▁爾不能	-12798
▁爾中誰	-12799
▁瑪西雅	-12800
▁示瑪雅	-12801
▁約哈斯	-12802
▁約瑟曰	-12803
▁耶穌入	-12804
▁計四萬	-12805
▁請告我	-12806
▁諭之曰	-12807
▁非尼哈	-12808
上帝之名	-12809
上帝之恩	-12810
主耶和華	-12811
之上帝也	-12812
二萬二千	-12813
亞倫子孫	-12814
以法蓮人	-12815
俄別以東	-12816
其有福兮	-12817
可憎之物	-12818
君王牧伯	-12819
四分之一	-12820
大衛之位	-12821
子約雅敬	-12822
宅地之人	-12823
巴旦亞蘭	-12824
循我典章	-12825
恩寵平康	-12826
悖逆之家	-12827
我僕大衛	-12828
我父大衛	-12829
所犯之罪	-12830
所諭爾者	-12831
所賜之地	-12832
摩押平原	-12833
撒加利亞	-12834
於會幕門	-12835
椶樹之狀	-12836
為其牧伯	-12837
當滅之物	-12838
脫於我手	-12839
謂其不潔	-12840
食無酵餅	-12841
balat	-12842
bubuu	-12843
duasa	-12844
hanan	-12845
kekaa	-12846
maboɔ	-12847
nwoeɛ	-12848
trama	-12849
tɛbɛn	-12850
▁abea	-12851
▁adin	-12852
▁adun	-12853
▁amam	-12854
▁ammu	-12855
▁arba	-12856
▁asur	-12857
▁atɔe	-12858
▁bɛwe	-12859
▁dabe	-12860
▁dome	-12861
▁ehud	-12862
▁hara	-12863
▁huam	-12864
▁kere	-12865
▁kɔda	-12866
▁maon	-12867
▁mawu	-12868
▁mfaa	-12869
▁mumu	-12870
▁muse	-12871
▁nhin	-12872
▁nnaa	-12873
▁ntrɛ	-12874
▁ntɔn	-12875
▁odwo	-12876
▁ofir	-12877
▁sini	-12878
▁sipo	-12879
▁tema	-12880
▁toma	-12881
▁trɛɛ	-12882
▁wawo	-12883
▁ɔbra	-12884
▁ɔgya	-12885
▁ɔpɛe	-12886
▁ɔsoa	-12887
▁ɛdɛm	-12888
▁ɛmom	-12889
▁ɛnyi	-12890
▁ɛsen	-12891
▁ɛsɛe	-12892
▁ɛtrɛ	-12893
▁一心一意	-12894
▁上帝為我	-12895
▁不可勝數	-12896
▁亞他利雅	-12897
▁亞希多弗	-12898
▁在約但東	-12899
▁按其行伍	-12900
▁斯土之民	-12901
▁然耶和華	-12902
▁牡山羊一	-12903
▁眾祭司長	-12904
▁米非波設	-12905
▁耶和華不	-12906
▁迨耶和華	-12907
▁願王萬歲	-12908
以色列人曰	-12909
在以色列中	-12910
諮諏耶和華	-12911
魯雅子約押	-12912
bibire	-12913
denden	-12914
franam	-12915
kanfoɔ	-12916
kanyan	-12917
kyekyɛ	-12918
mfafoɔ	-12919
romani	-12920
ruburo	-12921
▁abedi	-12922
▁abihu	-12923
▁adesa	-12924
▁adwen	-12925
▁afobu	-12926
▁aguan	-12927
▁akɔto	-12928
▁atipa	-12929
▁bɛbom	-12930
▁bɛdie	-12931
▁datan	-12932
▁dibon	-12933
▁ebesi	-12934
▁eliel	-12935
▁elihu	-12936
▁etumi	-12937
▁galɔn	-12938
▁gerar	-12939
▁hamee	-12940
▁hanun	-12941
▁homer	-12942
▁hɔfoɔ	-12943
▁kanko	-12944
▁kedes	-12945
▁kenas	-12946
▁kyɛre	-12947
▁melek	-12948
▁memmɔ	-12949
▁metoo	-12950
▁mmisa	-12951
▁mmura	-12952
▁mmɛsa	-12953
▁moaba	-12954
▁monno	-12955
▁nkora	-12956
▁nkɔma	-12957
▁nnaeɛ	-12958
▁nsamu	-12959
▁obeyi	-12960
▁ogyaw	-12961
▁ornan	-12962
▁osuro	-12963
▁sibea	-12964
▁sikri	-12965
▁suroe	-12966
▁tofet	-12967
▁twene	-12968
▁wobuu	-12969
▁wotaa	-12970
▁wɔgya	-12971
▁wɔpɛe	-12972
▁wɔsoa	-12973
▁wɔtii	-12974
▁yafet	-12975
▁yakin	-12976
▁yerah	-12977
▁ɔboaa	-12978
▁ɔbɛbu	-12979
▁ɔgyeɛ	-12980
▁ɔteaa	-12981
▁ɔtumi	-12982
▁ɔyera	-12983
▁ɛrebɛ	-12984
▁ɛsisi	-12985
▁ɛyerɛ	-12986
▁故耶和華曰	-12987
▁於耶和華前	-12988
▁歸於耶和華	-12989
火祭於耶和華	-12990
素祭灌祭之外	-12991
耶孚尼子迦勒	-12992
boaboaa	-12993
kyerɛne	-12994
nnyadeɛ	-12995
soduane	-12996
▁afanan	-12997
▁agudeɛ	-12998
▁ahyɛne	-12999
▁akɔsom	-13000
▁amusie	-13001
▁anhwea	-13002
▁ansane	-13003
▁asoɛeɛ	-13004
▁ayalon	-13005
▁beerot	-13006
▁betuel	-13007
▁bɛbobɔ	-13008
▁daapem	-13009
▁debora	-13010
▁emufoɔ	-13011
▁hanani	-13012
▁hwenem	-13013
▁kantan	-13014
▁kommyɛ	-13015
▁makasa	-13016
▁megyee	-13017
▁mennom	-13018
▁mesoma	-13019
▁mfirii	-13020
▁mikmas	-13021
▁moabni	-13022
▁monkan	-13023
▁mpakye	-13024
▁mpraeɛ	-13025
▁mɛsane	-13026
▁mɛtene	-13027
▁nsaden	-13028
▁nsisie	-13029
▁nsuano	-13030
▁ntokon	-13031
▁nuabea	-13032
▁osetie	-13033
▁rebɛyɛ	-13034
▁sahene	-13035
▁seesei	-13036
▁sikani	-13037
▁sisire	-13038
▁tuatua	-13039
▁wabubu	-13040
▁watumi	-13041
▁woabrɛ	-13042
▁woasɛe	-13043
▁wobeyi	-13044
▁wodwen	-13045
▁wusɔre	-13046
▁wɔampɛ	-13047
▁wɔankɔ	-13048
▁wɔbuaa	-13049
▁wɔbɛwo	-13050
▁wɔnhye	-13051
▁wɔnkyɛ	-13052
▁wɔnnyɛ	-13053
▁wɔnsɛe	-13054
▁wɔsrɛɛ	-13055
▁wɔtwɛn	-13056
▁yɛnnim	-13057
▁ɔbubuu	-13058
▁ɔkasae	-13059
▁ɔteɛɛm	-13060
▁ɛnonom	-13061
▁脫於奴隸之室	-13062
上帝耶和華之名	-13063
wareware	-13064
▁adagyaw	-13065
▁ahotoso	-13066
▁ahyerɛn	-13067
▁akwante	-13068
▁bɛkataa	-13069
▁dwaneeɛ	-13070
▁ebetumi	-13071
▁hyehyee	-13072
▁kasatia	-13073
▁metenaa	-13074
▁mfɛntom	-13075
▁mmakoma	-13076
▁mmɔnten	-13077
▁momforo	-13078
▁nhoahoa	-13079
▁nkoafie	-13080
▁nkyerɛɛ	-13081
▁nnɛɛmma	-13082
▁nyankon	-13083
▁osikani	-13084
▁owudini	-13085
▁sekania	-13086
▁sodifoɔ	-13087
▁sotefoɔ	-13088
▁tirimbɔ	-13089
▁wampene	-13090
▁wofitii	-13091
▁wonante	-13092
▁worenni	-13093
▁wubegye	-13094
▁wubenya	-13095
▁wɔaborɔ	-13096
▁wɔabɛyɛ	-13097
▁wɔnante	-13098
▁wɔnnane	-13099
▁wɔnsuro	-13100
▁yɛatumi	-13101
▁ɔhempɔn	-13102
▁ɔnkyerɛ	-13103
▁ɔnwonoo	-13104
▁ɔsahene	-13105
▁ɔsomafo	-13106
▁ɔsɛefoɔ	-13107
▁ɔyafunu	-13108
▁以為馨香之火祭	-13109
▁我上帝耶和華歟	-13110
▁耶穌應而語之曰	-13111
muɔdenfoɔ	-13112
▁agyinamu	-13113
▁ahuhusɛm	-13114
▁ahweaseɛ	-13115
▁asɔfodie	-13116
▁awuranom	-13117
▁ayɔnkofa	-13118
▁kristofo	-13119
▁mankyerɛ	-13120
▁merebɛka	-13121
▁nantewee	-13122
▁nkuraase	-13123
▁nkyehoma	-13124
▁nkɔntorɔ	-13125
▁nsusuwii	-13126
▁ntweaban	-13127
▁odwumfoɔ	-13128
▁rennyina	-13129
▁sanbalat	-13130
▁worennya	-13131
▁wɔdaadaa	-13132
▁wɔkyerɛw	-13133
▁wɔrenkae	-13134
▁wɔrennye	-13135
▁ɔbɛkyerɛ	-13136
▁及其素祭灌祭之外	-13137
▁維生之耶和華而誓	-13138
▁aburuburo	-13139
▁adanmudeɛ	-13140
▁ahohoahoa	-13141
▁asunsuane	-13142
▁gibeonfoɔ	-13143
▁keretifoɔ	-13144
▁mmofraase	-13145
▁mommoaboa	-13146
▁nkatanimu	-13147
▁nneduadan	-13148
▁owigyinae	-13149
▁sunsuanee	-13150
▁weretɔfoɔ	-13151
▁wɔrenhunu	-13152
▁wɔsiesiee	-13153
▁yerahmeel	-13154
▁ɔmannwoeɛ	-13155
▁ɛrefranam	-13156
▁asasewosow	-13157
▁awunnyadeɛ	-13158
▁dwanedwane	-13159
▁etiopiafoɔ	-13160
▁gyatabereɛ	-13161
▁wɔkurakura	-13162
▁yehoiakyin	-13163
▁以色列之上帝耶和華歟	-13164
▁遵耶和華所諭摩西之命	-13165
▁apopobibire	-13166
▁asɛntenenee	-13167
▁mponkyerɛne	-13168
▁ntokontrama	-13169
▁wɔadanedane	-13170
▁akwansoduane	-13171
▁amanehunufoɔ	-13172
▁rekyerɛkyerɛ	-13173
▁kantankrankyi	-13174
▁仰	-13175
▁伐	-13176
▁卒	-13177
▁厚	-13178
▁原	-13179
▁周	-13180
▁哭	-13181
▁囑	-13182
▁塞	-13183
▁季	-13184
▁宗	-13185
▁宥	-13186
▁彌	-13187
▁怨	-13188
▁戲	-13189
▁承	-13190
▁抵	-13191
▁拘	-13192
▁挈	-13193
▁摩	-13194
▁斂	-13195
▁暮	-13196
▁板	-13197
▁殲	-13198
▁毫	-13199
▁犬	-13200
▁狀	-13201
▁畀	-13202
▁疾	-13203
▁瞻	-13204
▁究	-13205
▁納	-13206
▁罰	-13207
▁荷	-13208
▁責	-13209
▁跪	-13210
▁退	-13211
▁逾	-13212
▁遊	-13213
▁遭	-13214
▁選	-13215
▁鈎	-13216
▁錄	-13217
▁鑒	-13218
▁阻	-13219
▁雞	-13220
▁雷	-13221
▁顧	-13222
▁鳥	-13223
一竿	-13224
一詞	-13225
三層	-13226
上者	-13227
不妊	-13228
不敢	-13229
不服	-13230
不獲	-13231
世系	-13232
丟珥	-13233
主也	-13234
乃聖	-13235
之佳	-13236
之側	-13237
之南	-13238
之式	-13239
之意	-13240
之杯	-13241
之牀	-13242
之甚	-13243
之目	-13244
之程	-13245
之臣	-13246
之親	-13247
之詛	-13248
之骨	-13249
乞糴	-13250
亞利	-13251
亡矣	-13252
亦在	-13253
人必	-13254
人民	-13255
人與	-13256
他泊	-13257
他邦	-13258
以前	-13259
以攔	-13260
以新	-13261
以至	-13262
伯那	-13263
作保	-13264
來自	-13265
俄頃	-13266
俘虜	-13267
修好	-13268
偕來	-13269
偕彼	-13270
傭人	-13271
傳於	-13272
先爾	-13273
先者	-13274
光輝	-13275
兩端	-13276
其值	-13277
其價	-13278
其役	-13279
其敵	-13280
其枝	-13281
其欲	-13282
其約	-13283
其肉	-13284
其行	-13285
其面	-13286
出胎	-13287
切求	-13288
利末	-13289
前有	-13290
力山	-13291
加低	-13292
助爾	-13293
務盡	-13294
勸之	-13295
匍匐	-13296
厥手	-13297
厥聲	-13298
反齧	-13299
取爾	-13300
取而	-13301
叱咤	-13302
右耳	-13303
各二	-13304
吉多	-13305
同行	-13306
呼號	-13307
命我	-13308
和好	-13309
哈他	-13310
哈嫩	-13311
哈該	-13312
哺乳	-13313
啟之	-13314
喪子	-13315
嘉者	-13316
四邑	-13317
困乏	-13318
國中	-13319
土利	-13320
執刃	-13321
執政	-13322
基色	-13323
基述	-13324
報施	-13325
夏瑣	-13326
多尼	-13327
多端	-13328
大米	-13329
大臣	-13330
大袞	-13331
天之	-13332
奸惡	-13333
如斯	-13334
如昔	-13335
如水	-13336
娼妓	-13337
子帕	-13338
子西	-13339
定期	-13340
定罪	-13341
密抹	-13342
富人	-13343
富者	-13344
尊我	-13345
尼基	-13346
尼流	-13347
己者	-13348
已畢	-13349
帳幕	-13350
幕門	-13351
幼女	-13352
幽魂	-13353
建邑	-13354
引至	-13355
強健	-13356
強盛	-13357
往彼	-13358
律之	-13359
得免	-13360
得應	-13361
復和	-13362
復返	-13363
必在	-13364
必曰	-13365
念之	-13366
怒者	-13367
惟爾	-13368
惡念	-13369
惡爾	-13370
愛情	-13371
慕拿	-13372
憩息	-13373
懷憂	-13374
成羣	-13375
我目	-13376
我見	-13377
或惡	-13378
所殺	-13379
所祈	-13380
所積	-13381
所錄	-13382
抄本	-13383
折其	-13384
拔之	-13385
拔刃	-13386
捕風	-13387
撒列	-13388
撒羅	-13389
撒萊	-13390
播者	-13391
擘餅	-13392
故邑	-13393
救己	-13394
救贖	-13395
教法	-13396
文字	-13397
斐特	-13398
斯迦	-13399
於二	-13400
於信	-13401
於口	-13402
於墓	-13403
於獸	-13404
於門	-13405
於靈	-13406
既久	-13407
既盈	-13408
日月	-13409
昔由	-13410
是邑	-13411
暗中	-13412
曾以	-13413
有七	-13414
有信	-13415
有子	-13416
有意	-13417
有益	-13418
服於	-13419
未得	-13420
榮美	-13421
樂器	-13422
欲往	-13423
欷歔	-13424
歌革	-13425
歡悅	-13426
此子	-13427
歸家	-13428
殘害	-13429
殿中	-13430
毀壞	-13431
毀謗	-13432
比人	-13433
氣息	-13434
水中	-13435
永遠	-13436
江河	-13437
污染	-13438
沃壤	-13439
波拉	-13440
淫行	-13441
深信	-13442
漲溢	-13443
漸長	-13444
灰塵	-13445
為二	-13446
為僕	-13447
為樂	-13448
無力	-13449
無存	-13450
無庸	-13451
無水	-13452
然而	-13453
父也	-13454
爾兄	-13455
爾家	-13456
牆垣	-13457
牛驢	-13458
物之	-13459
瑪那	-13460
環之	-13461
生矣	-13462
產者	-13463
略人	-13464
當之	-13465
相間	-13466
石版	-13467
磯法	-13468
示撒	-13469
祝福	-13470
禁錮	-13471
稱曰	-13472
穡時	-13473
穩固	-13474
立拿	-13475
第二	-13476
籲爾	-13477
米大	-13478
紅玉	-13479
納我	-13480
緣爾	-13481
縛之	-13482
羊牢	-13483
美好	-13484
義之	-13485
翼下	-13486
者宜	-13487
而作	-13488
而獲	-13489
而逃	-13490
聖殿	-13491
聞者	-13492
自大	-13493
自欺	-13494
自誇	-13495
與同	-13496
與所	-13497
與環	-13498
若不	-13499
藏之	-13500
藏於	-13501
行癸	-13502
被殺	-13503
被毀	-13504
被焚	-13505
被玷	-13506
褻瀆	-13507
見召	-13508
見滅	-13509
覿面	-13510
言也	-13511
訓迪	-13512
詬詈	-13513
詭計	-13514
詳察	-13515
謀士	-13516
謀害	-13517
謹防	-13518
貧人	-13519
賀梅	-13520
路者	-13521
踐踏	-13522
輝光	-13523
迦尼	-13524
迷途	-13525
速至	-13526
遂出	-13527
違逆	-13528
遙立	-13529
避之	-13530
野犬	-13531
閃電	-13532
附近	-13533
降臨	-13534
陳設	-13535
隱處	-13536
雲柱	-13537
靈魂	-13538
面前	-13539
預備	-13540
頹敗	-13541
顚狂	-13542
顯其	-13543
香壇	-13544
驅逐	-13545
驕傲	-13546
鴕鳥	-13547
鹽海	-13548
黃金	-13549
aba	-13550
beɛ	-13551
duo	-13552
elu	-13553
gow	-13554
gyi	-13555
ker	-13556
nto	-13557
prɛ	-13558
sad	-13559
sub	-13560
ɛmɛ	-13561
ɛre	-13562
▁三人	-13563
▁不行	-13564
▁不論	-13565
▁且將	-13566
▁主必	-13567
▁乃其	-13568
▁乃縵	-13569
▁二千	-13570
▁亞們	-13571
▁亞勒	-13572
▁亦在	-13573
▁今亦	-13574
▁以告	-13575
▁以多	-13576
▁以水	-13577
▁以言	-13578
▁任意	-13579
▁企望	-13580
▁供事	-13581
▁假令	-13582
▁內殿	-13583
▁其家	-13584
▁其榮	-13585
▁其民	-13586
▁其終	-13587
▁其義	-13588
▁勿加	-13589
▁勿往	-13590
▁匿於	-13591
▁南土	-13592
▁又自	-13593
▁及為	-13594
▁取之	-13595
▁古文	-13596
▁可以	-13597
▁向爾	-13598
▁命爾	-13599
▁咸屬	-13600
▁哈蘭	-13601
▁哈達	-13602
▁基尼	-13603
▁士師	-13604
▁多有	-13605
▁天地	-13606
▁山羊	-13607
▁干犯	-13608
▁干罪	-13609
▁延至	-13610
▁律法	-13611
▁必報	-13612
▁必如	-13613
▁必復	-13614
▁必攜	-13615
▁必死	-13616
▁惟欲	-13617
▁我中	-13618
▁我仍	-13619
▁我嘗	-13620
▁我怒	-13621
▁我意	-13622
▁我皆	-13623
▁我至	-13624
▁我遭	-13625
▁我魂	-13626
▁戰士	-13627
▁戰慄	-13628
▁所遺	-13629
▁既出	-13630
▁日出	-13631
▁明哲	-13632
▁會幕	-13633
▁有自	-13634
▁有言	-13635
▁欣喜	-13636
▁欣然	-13637
▁欲以	-13638
▁歷年	-13639
▁歷時	-13640
▁每晨	-13641
▁洪水	-13642
▁火焚	-13643
▁為此	-13644
▁為每	-13645
▁然非	-13646
▁爾又	-13647
▁爾因	-13648
▁爾毋	-13649
▁狥欲	-13650
▁猶太	-13651
▁瑪代	-13652
▁瑪吉	-13653
▁示利	-13654
▁立而	-13655
▁約拿	-13656
▁經行	-13657
▁罪人	-13658
▁而心	-13659
▁聖所	-13660
▁聽其	-13661
▁肇造	-13662
▁自爾	-13663
▁若云	-13664
▁若其	-13665
▁見之	-13666
▁觀其	-13667
▁言時	-13668
▁許願	-13669
▁諸兄	-13670
▁謙卑	-13671
▁賜爾	-13672
▁跛者	-13673
▁遂執	-13674
▁遂曰	-13675
▁適有	-13676
▁香柏	-13677
▁魔鬼	-13678
▁麰麥	-13679
一萬肘	-13680
七十年	-13681
不復有	-13682
不義者	-13683
不識之	-13684
世人之	-13685
之人乎	-13686
之偶像	-13687
之浸禮	-13688
之燔祭	-13689
之輕重	-13690
之門徒	-13691
予之食	-13692
予我者	-13693
亞希雅	-13694
人之血	-13695
他人之	-13696
以攻之	-13697
任聖職	-13698
估之價	-13699
偏於右	-13700
偏於左	-13701
偕爾曹	-13702
兄以掃	-13703
先知曰	-13704
先知者	-13705
利沙伯	-13706
利瑪利	-13707
動搖兮	-13708
區別之	-13709
各人所	-13710
告爾曰	-13711
在殿宇	-13712
基列地	-13713
子之業	-13714
子比加	-13715
子約坦	-13716
子約瑟	-13717
尋何以	-13718
居之地	-13719
居之處	-13720
居其地	-13721
彼得曰	-13722
我所錫	-13723
我民之	-13724
戮於刃	-13725
所出之	-13726
所受之	-13727
所行者	-13728
所見者	-13729
所許之	-13730
所許者	-13731
所造者	-13732
拿細耳	-13733
提沙撒	-13734
援我於	-13735
摩押王	-13736
撒慕拿	-13737
據之地	-13738
攜之出	-13739
攜之去	-13740
攜之至	-13741
敘利亞	-13742
教法師	-13743
斯民之	-13744
方言者	-13745
於其口	-13746
於其衷	-13747
於其間	-13748
於地上	-13749
於敵前	-13750
於諸天	-13751
於鋒刃	-13752
施戶珥	-13753
曠野之	-13754
有智慧	-13755
染污衊	-13756
核其數	-13757
欣嫩子	-13758
此諸事	-13759
法度兮	-13760
為其所	-13761
為其業	-13762
為基督	-13763
燔祭壇	-13764
父上帝	-13765
爾所有	-13766
爾者必	-13767
猶大族	-13768
獻之祭	-13769
獻牡犢	-13770
班之長	-13771
相對之	-13772
相議曰	-13773
神而言	-13774
立之為	-13775
約押曰	-13776
約雅斤	-13777
索我命	-13778
羅非哈	-13779
者為誰	-13780
而從之	-13781
而滅之	-13782
耶穌者	-13783
聞其聲	-13784
聞此言	-13785
肉體者	-13786
與不潔	-13787
舍伯那	-13788
茇大尼	-13789
行惡者	-13790
衣枲衣	-13791
西西拉	-13792
見之乎	-13793
見耶穌	-13794
言告之	-13795
語爾者	-13796
起而往	-13797
起而攻	-13798
造之者	-13799
陀斐特	-13800
雅各曰	-13801
duae	-13802
fele	-13803
gido	-13804
hori	-13805
hɔre	-13806
kann	-13807
kiti	-13808
misa	-13809
nyaa	-13810
riba	-13811
ropo	-13812
safo	-13813
teɛɛ	-13814
tfoɔ	-13815
tibo	-13816
ɔɔso	-13817
ɛnee	-13818
▁are	-13819
▁big	-13820
▁ewi	-13821
▁har	-13822
▁kuw	-13823
▁oye	-13824
▁tro	-13825
▁was	-13826
▁wiɛ	-13827
▁ɔbe	-13828
▁上帝乃	-13829
▁亞希突	-13830
▁亞比戶	-13831
▁亞比蘭	-13832
▁伯示麥	-13833
▁六日間	-13834
▁共四邑	-13835
▁其中有	-13836
▁其門徒	-13837
▁凡其所	-13838
▁命之曰	-13839
▁埃及王	-13840
▁基哈西	-13841
▁小子乎	-13842
▁希伯崙	-13843
▁強乃心	-13844
▁彼之所	-13845
▁彼得曰	-13846
▁惟我儕	-13847
▁惟祭司	-13848
▁我偕爾	-13849
▁我儕已	-13850
▁我必自	-13851
▁或雛鴿	-13852
▁法勒斯	-13853
▁為爾之	-13854
▁然上帝	-13855
▁爾不可	-13856
▁瑪挪亞	-13857
▁第三日	-13858
▁米該雅	-13859
▁耶布斯	-13860
▁耶杜頓	-13861
▁耶穌又	-13862
▁耶穌者	-13863
▁耶穌見	-13864
▁葡萄園	-13865
▁蓋我所	-13866
▁蓋爾之	-13867
▁西西拉	-13868
▁計五萬	-13869
▁非士都	-13870
一萬二千	-13871
上帝之靈	-13872
亞多尼雅	-13873
亞述王手	-13874
仁慈矜憫	-13875
以利亞實	-13876
以利亞曰	-13877
以利加拿	-13878
以色列者	-13879
伊施波設	-13880
侃侃而言	-13881
便雅憫之	-13882
加低斯巴	-13883
可惡之物	-13884
天上上帝	-13885
子以利押	-13886
子非尼哈	-13887
寄名之處	-13888
巴珊王噩	-13889
式飲式食	-13890
恃耶和華	-13891
我上帝歟	-13892
所羅門之	-13893
所羅門曰	-13894
指耶和華	-13895
掃羅及其	-13896
於上帝室	-13897
於十字架	-13898
於埃及人	-13899
為祭司長	-13900
猶大人之	-13901
猶大支派	-13902
異蹟奇事	-13903
綠樹之下	-13904
罰我維倍	-13905
至上者之	-13906
與以色列	-13907
英武之士	-13908
謂大衛曰	-13909
護軍之院	-13910
bɔfoɔ	-13911
eatoɔ	-13912
funum	-13913
hwire	-13914
ieser	-13915
konia	-13916
mmerɛ	-13917
nadeɛ	-13918
pueeɛ	-13919
rinto	-13920
salel	-13921
sugya	-13922
wuwuo	-13923
▁ahow	-13924
▁amia	-13925
▁anwo	-13926
▁apia	-13927
▁ataa	-13928
▁ateɛ	-13929
▁atra	-13930
▁awen	-13931
▁dina	-13932
▁edin	-13933
▁enos	-13934
▁enum	-13935
▁epie	-13936
▁etam	-13937
▁gama	-13938
▁gugu	-13939
▁gyam	-13940
▁imer	-13941
▁itai	-13942
▁kadm	-13943
▁kyɛe	-13944
▁kɔbɔ	-13945
▁kɔto	-13946
▁mapa	-13947
▁mara	-13948
▁mata	-13949
▁mati	-13950
▁matu	-13951
▁mesa	-13952
▁mesi	-13953
▁migu	-13954
▁mmee	-13955
▁mmon	-13956
▁musi	-13957
▁ntim	-13958
▁nusu	-13959
▁nwie	-13960
▁ohia	-13961
▁okyi	-13962
▁omme	-13963
▁osoo	-13964
▁resi	-13965
▁reto	-13966
▁semi	-13967
▁siim	-13968
▁siri	-13969
▁soar	-13970
▁twan	-13971
▁woko	-13972
▁wosɔ	-13973
▁wufi	-13974
▁wɔsi	-13975
▁yeus	-13976
▁ɔhoɔ	-13977
▁ɔhwe	-13978
▁ɔnku	-13979
▁ɔnsa	-13980
▁ɔtow	-13981
▁ɔtua	-13982
▁ɛdɛn	-13983
▁不加矜憫	-13984
▁乃蒙赦宥	-13985
▁亞瑪利雅	-13986
▁以耶和華	-13987
▁則謂之曰	-13988
▁包之以金	-13989
▁又謂之曰	-13990
▁及其子孫	-13991
▁在上帝前	-13992
▁基督之名	-13993
▁基督之恩	-13994
▁如耶和華	-13995
▁尼提甯人	-13996
▁尼陀法人	-13997
▁必負其罪	-13998
▁我必為爾	-13999
▁我所愛者	-14000
▁所羅門曰	-14001
▁拉伯沙基	-14002
▁於安息日	-14003
▁歷世靡暨	-14004
▁牡綿羊二	-14005
▁祭司先知	-14006
▁耶和華室	-14007
▁耶和華為	-14008
▁自裂其衣	-14009
▁越至八日	-14010
亞伯拉罕曰	-14011
在耶和華室	-14012
子亞撒利雅	-14013
從事於會幕	-14014
我之上帝歟	-14015
歸於耶和華	-14016
知我耶和華	-14017
耶和華之道	-14018
非利士人手	-14019
馨香之火祭	-14020
𠵽唎㘔人之	-14021
duuduu	-14022
faksad	-14023
funtum	-14024
kasaka	-14025
konton	-14026
kuruwa	-14027
peepee	-14028
rɔdɔma	-14029
titene	-14030
▁afefɛ	-14031
▁afuru	-14032
▁afɛfo	-14033
▁agugu	-14034
▁agyaw	-14035
▁akɔko	-14036
▁anafo	-14037
▁aniha	-14038
▁asaia	-14039
▁atutu	-14040
▁bebuu	-14041
▁belte	-14042
▁boafo	-14043
▁bogya	-14044
▁bɛfrɛ	-14045
▁bɛkoe	-14046
▁bɛsan	-14047
▁dupɔn	-14048
▁fɛdie	-14049
▁gyama	-14050
▁howee	-14051
▁kenan	-14052
▁kusni	-14053
▁kɔguu	-14054
▁kɔtɔn	-14055
▁mamre	-14056
▁mesek	-14057
▁mmoaa	-14058
▁mogye	-14059
▁molek	-14060
▁mpemd	-14061
▁nitan	-14062
▁nkapo	-14063
▁nkɛnt	-14064
▁nnhyɛ	-14065
▁nnnye	-14066
▁nsram	-14067
▁ntasu	-14068
▁obisa	-14069
▁odwen	-14070
▁ontie	-14071
▁owufo	-14072
▁peleg	-14073
▁rebɛn	-14074
▁retwa	-14075
▁sebna	-14076
▁sɛbeɛ	-14077
▁tikwa	-14078
▁totɔɔ	-14079
▁wagya	-14080
▁wanhu	-14081
▁wankɔ	-14082
▁wanto	-14083
▁wasan	-14084
▁woaba	-14085
▁wohyɛ	-14086
▁wommu	-14087
▁wotoo	-14088
▁wunni	-14089
▁wɔbae	-14090
▁wɔsɔɔ	-14091
▁wɔwɛn	-14092
▁yedii	-14093
▁yobab	-14094
▁yɛama	-14095
▁yɛsrɛ	-14096
▁ɔbutu	-14097
▁ɔbɛda	-14098
▁ɔhwie	-14099
▁ɔkoto	-14100
▁ɔmmma	-14101
▁ɔnnkɔ	-14102
▁ɔpedu	-14103
▁ɔpono	-14104
▁ɔrepɛ	-14105
▁ɔtrɛɛ	-14106
▁ɔwiee	-14107
▁ɛbaeɛ	-14108
▁ɛbɛsi	-14109
▁ɛhyɛɛ	-14110
▁ɛkeka	-14111
▁ɛkwan	-14112
▁ɛnnya	-14113
▁以色列王曰	-14114
▁年二十有五	-14115
▁我主我王歟	-14116
▁是日耶和華	-14117
▁為贖罪之祭	-14118
▁當澣衣濯身	-14119
伊法十分之二	-14120
猶大王希西家	-14121
耶和華之祭司	-14122
舁耶和華約匱	-14123
鋒刃饑饉疫癘	-14124
kuntunu	-14125
kɔnsani	-14126
▁abeawa	-14127
▁abɛhwɛ	-14128
▁adesrɛ	-14129
▁adikan	-14130
▁adwera	-14131
▁afebɔɔ	-14132
▁akokwa	-14133
▁amihud	-14134
▁arauna	-14135
▁atifoɔ	-14136
▁ayamyɛ	-14137
▁bɛhyee	-14138
▁bɛkorɔ	-14139
▁bɛsoma	-14140
▁bɛtene	-14141
▁daberɛ	-14142
▁dawuru	-14143
▁hoaboɔ	-14144
▁hwammɔ	-14145
▁hwetee	-14146
▁hyiaeɛ	-14147
▁kaldea	-14148
▁korɔno	-14149
▁kunkum	-14150
▁kyenee	-14151
▁kɔhyia	-14152
▁kɔtwaa	-14153
▁mabubu	-14154
▁makeda	-14155
▁manfoɔ	-14156
▁masane	-14157
▁megido	-14158
▁mehwee	-14159
▁meredi	-14160
▁meriba	-14161
▁mobɛfa	-14162
▁moduru	-14163
▁monnkɔ	-14164
▁monsan	-14165
▁mudwen	-14166
▁munnni	-14167
▁munsua	-14168
▁mutumi	-14169
▁mɛbubu	-14170
▁mɛtumi	-14171
▁nahson	-14172
▁nantew	-14173
▁nnwane	-14174
▁nsanku	-14175
▁nsapan	-14176
▁ontumi	-14177
▁refaim	-14178
▁rekɔko	-14179
▁rentie	-14180
▁retwɛn	-14181
▁santen	-14182
▁tinhwi	-14183
▁wadane	-14184
▁woduru	-14185
▁wokita	-14186
▁wonnni	-14187
▁wosiee	-14188
▁woyɛeɛ	-14189
▁wɔahye	-14190
▁wɔanka	-14191
▁wɔbisa	-14192
▁wɔboro	-14193
▁wɔbrɛɛ	-14194
▁wɔbɛhu	-14195
▁wɔbɛtu	-14196
▁wɔdidi	-14197
▁wɔmfaa	-14198
▁wɔnnni	-14199
▁wɔpamm	-14200
▁wɔrebe	-14201
▁wɔredi	-14202
▁wɔreyi	-14203
▁yennim	-14204
▁yɛagye	-14205
▁ɔbɛhwɛ	-14206
▁ɔbɛkaa	-14207
▁ɔbɛyɛɛ	-14208
▁ɔdwene	-14209
▁ɔhwiee	-14210
▁ɔkotoo	-14211
▁ɔkɔtoo	-14212
▁ɔremfa	-14213
▁ɔrenwu	-14214
▁ɔsaman	-14215
▁ɛdanee	-14216
▁ɛntumi	-14217
▁ɛsofoɔ	-14218
▁搖於耶和華前	-14219
約西亞子約雅敬	-14220
dwinnwen	-14221
kyekyerɛ	-14222
▁adebisa	-14223
▁adehyeɛ	-14224
▁ahosene	-14225
▁ahurisi	-14226
▁ahwɛdeɛ	-14227
▁akɔtena	-14228
▁apeatoɔ	-14229
▁asmawet	-14230
▁atenten	-14231
▁atwitwa	-14232
▁begyina	-14233
▁besalel	-14234
▁dapɔnna	-14235
▁elifele	-14236
▁gyidini	-14237
▁hebrini	-14238
▁hwannom	-14239
▁kobisaa	-14240
▁korinto	-14241
▁menhyɛɛ	-14242
▁mensoma	-14243
▁mfemfam	-14244
▁moasane	-14245
▁mobɛsom	-14246
▁monnodɔ	-14247
▁mpampam	-14248
▁munnnye	-14249
▁munsuro	-14250
▁nkontaa	-14251
▁nkukuwa	-14252
▁nkɔduru	-14253
▁nnadewa	-14254
▁nsamono	-14255
▁nsamsoɔ	-14256
▁nsuyiri	-14257
▁ntɔmmoɔ	-14258
▁nwisiaa	-14259
▁okunafo	-14260
▁selemia	-14261
▁teɛteɛɛ	-14262
▁woadane	-14263
▁woatumi	-14264
▁wɔadeda	-14265
▁wɔantwa	-14266
▁wɔayera	-14267
▁wɔbɛbrɛ	-14268
▁wɔbɛgya	-14269
▁wɔbɛhwɛ	-14270
▁wɔbɛhyɛ	-14271
▁wɔbɛtwe	-14272
▁wɔdanee	-14273
▁wɔnenam	-14274
▁wɔsesee	-14275
▁yekonia	-14276
▁yeroham	-14277
▁yosabad	-14278
▁ɔrekasa	-14279
▁ɔsiesie	-14280
▁以色列王約阿施	-14281
▁及耶路撒冷居民	-14282
▁摩西遵耶和華命	-14283
▁爾上帝耶和華必	-14284
以色列上帝耶和華	-14285
耶何耶大子比拿雅	-14286
kyekyefoɔ	-14287
▁abrannaa	-14288
▁ahoɔhare	-14289
▁akɔneaba	-14290
▁arfaksad	-14291
▁dwaresɛn	-14292
▁kyinhyia	-14293
▁mobɛtena	-14294
▁nkatanim	-14295
▁nnyansra	-14296
▁nwiinwii	-14297
▁odeduani	-14298
▁sakasaka	-14299
▁woakyerɛ	-14300
▁wɔkɔsraa	-14301
▁wɔrefiri	-14302
▁wɔrekɔfa	-14303
▁wɔremfrɛ	-14304
▁wɔsiesie	-14305
▁ɔhwehwɛɛ	-14306
▁ɔkunkumm	-14307
▁ɔrensane	-14308
▁ɔteasefo	-14309
▁約書亞與以色列眾	-14310
urukyireeɛ	-14311
▁abotitene	-14312
▁afomfafoɔ	-14313
▁akyiridie	-14314
▁asoɔdenfo	-14315
▁dwamamfoɔ	-14316
▁merenhunu	-14317
▁misraimfo	-14318
▁mmorɔdɔma	-14319
▁nhyehyɛmu	-14320
▁nkɛntɛmma	-14321
▁nsahyɛfoɔ	-14322
▁nsɔanodeɛ	-14323
▁ntakraboa	-14324
▁ntoatoaso	-14325
▁worenhunu	-14326
▁wɔhyehyɛɛ	-14327
▁wɔkɔhyiaa	-14328
▁wɔnsiesie	-14329
▁ɔkyekyere	-14330
▁ɔteasefoɔ	-14331
遵耶和華所諭摩西之命	-14332
▁aboɔdenneɛ	-14333
▁ahantansɛm	-14334
▁ahohoradeɛ	-14335
▁akontonkyi	-14336
▁akwankyerɛ	-14337
▁amumuyɛdeɛ	-14338
▁ankɔbeafoɔ	-14339
▁asubɔntene	-14340
▁atirisopam	-14341
▁atorɔmudeɛ	-14342
▁beltesasar	-14343
▁mmaranimfo	-14344
▁mmaratofoɔ	-14345
▁nkɔmhyɛfoɔ	-14346
▁nnwamamfoɔ	-14347
▁nsakyeraho	-14348
▁ɔkwadwofoɔ	-14349
▁ɔsɔfopanin	-14350
▁ahobrɛasefo	-14351
▁akwansrafoɔ	-14352
▁akwantemfoɔ	-14353
▁ayeforɔkunu	-14354
▁nkyekyeremu	-14355
▁akronkronfoɔ	-14356
▁atirimɔdenfo	-14357
▁nkontompofoɔ	-14358
▁animuonyamfoɔ	-14359
尼八子耶羅波安陷以色列人之罪	-14360
ol	-14361
ɛɛ	-14362
▁仆	-14363
▁便	-14364
▁值	-14365
▁匱	-14366
▁千	-14367
▁叛	-14368
▁吹	-14369
▁嗜	-14370
▁屏	-14371
▁弒	-14372
▁息	-14373
▁憶	-14374
▁懼	-14375
▁推	-14376
▁摧	-14377
▁撻	-14378
▁斥	-14379
▁昏	-14380
▁晨	-14381
▁梭	-14382
▁歡	-14383
▁沃	-14384
▁油	-14385
▁爇	-14386
▁畜	-14387
▁痛	-14388
▁盜	-14389
▁石	-14390
▁筵	-14391
▁結	-14392
▁網	-14393
▁苟	-14394
▁蛇	-14395
▁裸	-14396
▁覲	-14397
▁詎	-14398
▁詛	-14399
▁誘	-14400
▁誦	-14401
▁貪	-14402
▁迷	-14403
▁雕	-14404
▁鞫	-14405
▁須	-14406
▁頌	-14407
▁齒	-14408
一例	-14409
一掌	-14410
一邑	-14411
一體	-14412
七月	-14413
三肘	-14414
下者	-14415
不受	-14416
不我	-14417
不正	-14418
不答	-14419
不雨	-14420
世界	-14421
主名	-14422
乃屬	-14423
乃我	-14424
之乳	-14425
之井	-14426
之力	-14427
之勢	-14428
之城	-14429
之場	-14430
之夫	-14431
之形	-14432
之役	-14433
之徒	-14434
之成	-14435
之會	-14436
之泥	-14437
之牝	-14438
之用	-14439
之由	-14440
之角	-14441
之詞	-14442
之野	-14443
之音	-14444
乏人	-14445
予眾	-14446
二邑	-14447
亙古	-14448
亞底	-14449
亞文	-14450
亞達	-14451
亡者	-14452
人歟	-14453
人比	-14454
什物	-14455
代之	-14456
以何	-14457
以女	-14458
以實	-14459
以拉	-14460
以指	-14461
以歸	-14462
以譬	-14463
以陷	-14464
任意	-14465
伏拜	-14466
伐之	-14467
位時	-14468
何也	-14469
作者	-14470
使臣	-14471
侍立	-14472
修偉	-14473
俯首	-14474
偵者	-14475
備得	-14476
備驢	-14477
傾之	-14478
傾其	-14479
償願	-14480
充以	-14481
充盈	-14482
免難	-14483
六人	-14484
六肘	-14485
共分	-14486
其來	-14487
其側	-14488
其座	-14489
其王	-14490
其車	-14491
其金	-14492
冢子	-14493
出以	-14494
出迓	-14495
利汛	-14496
則可	-14497
則見	-14498
前行	-14499
加手	-14500
勿以	-14501
十角	-14502
印記	-14503
即起	-14504
厥命	-14505
叔伯	-14506
取人	-14507
受難	-14508
口者	-14509
叩門	-14510
可乎	-14511
可得	-14512
可歸	-14513
可詛	-14514
各城	-14515
同處	-14516
同謀	-14517
向三	-14518
向北	-14519
吾民	-14520
哀慟	-14521
哈巴	-14522
哈沙	-14523
嗣業	-14524
嘉偶	-14525
地兮	-14526
地基	-14527
坐席	-14528
坐而	-14529
坑坎	-14530
基納	-14531
基達	-14532
增爾	-14533
多行	-14534
夢中	-14535
大之	-14536
大威	-14537
大軍	-14538
天星	-14539
奇之	-14540
奇妙	-14541
女之	-14542
如己	-14543
如石	-14544
娶妻	-14545
嫁娶	-14546
子曰	-14547
子烏	-14548
守望	-14549
守者	-14550
安逸	-14551
定其	-14552
宣者	-14553
家室	-14554
將如	-14555
將指	-14556
小麥	-14557
尤大	-14558
尼哥	-14559
屈抑	-14560
屬之	-14561
屹立	-14562
州牧	-14563
左手	-14564
巧匠	-14565
巫術	-14566
已出	-14567
已定	-14568
幔長	-14569
幕板	-14570
底璧	-14571
庸人	-14572
弗聽	-14573
得一	-14574
得安	-14575
得潔	-14576
得聞	-14577
得脫	-14578
得赦	-14579
心怯	-14580
必以	-14581
必應	-14582
忌邪	-14583
忘之	-14584
忠誠	-14585
念我	-14586
忿恚	-14587
恐怖	-14588
恢復	-14589
惡事	-14590
惡言	-14591
愁苦	-14592
愚人	-14593
慰之	-14594
應以	-14595
應對	-14596
懲責	-14597
懼兮	-14598
戍卒	-14599
我冤	-14600
我出	-14601
我神	-14602
我耶	-14603
我首	-14604
戰時	-14605
戰車	-14606
所焚	-14607
所知	-14608
所記	-14609
承之	-14610
拿子	-14611
拿鶴	-14612
指己	-14613
挽弓	-14614
捫之	-14615
提幔	-14616
援之	-14617
援我	-14618
搖撼	-14619
攘奪	-14620
敗之	-14621
教會	-14622
斯地	-14623
斯室	-14624
斯時	-14625
新酒	-14626
斷乳	-14627
於大	-14628
於子	-14629
於室	-14630
於木	-14631
於隱	-14632
於額	-14633
施救	-14634
日光	-14635
昌大	-14636
星辰	-14637
普亞	-14638
書念	-14639
書者	-14640
有女	-14641
有眾	-14642
服者	-14643
木工	-14644
本族	-14645
束腰	-14646
柱頂	-14647
榮者	-14648
樂意	-14649
歌兮	-14650
歸榮	-14651
殘暴	-14652
比路	-14653
毘拉	-14654
求其	-14655
沈醉	-14656
河外	-14657
法列	-14658
法撒	-14659
洩我	-14660
活水	-14661
消亡	-14662
消滅	-14663
涕泣	-14664
清晨	-14665
潔淨	-14666
火焚	-14667
為三	-14668
為何	-14669
為光	-14670
為子	-14671
為悅	-14672
為意	-14673
為父	-14674
烏施	-14675
然也	-14676
燈光	-14677
營壘	-14678
爇炭	-14679
爾亦	-14680
爾國	-14681
爾在	-14682
爾業	-14683
爾當	-14684
爾目	-14685
爾碎	-14686
牡羊	-14687
犧牲	-14688
獨在	-14689
獲救	-14690
玄孫	-14691
珍珠	-14692
珍饈	-14693
珥楠	-14694
瑣珥	-14695
瑪瑙	-14696
瓦器	-14697
甘霖	-14698
甚重	-14699
甦我	-14700
申初	-14701
界之	-14702
白衣	-14703
百倍	-14704
百獸	-14705
百體	-14706
皓首	-14707
盥手	-14708
眾皆	-14709
石為	-14710
禽獸	-14711
節之	-14712
節曰	-14713
米所	-14714
糧食	-14715
細故	-14716
羞慚	-14717
義而	-14718
者來	-14719
者受	-14720
者多	-14721
者與	-14722
而仆	-14723
而定	-14724
而復	-14725
而戰	-14726
而聽	-14727
而退	-14728
而逝	-14729
而顯	-14730
聖日	-14731
聖潔	-14732
聽者	-14733
肅會	-14734
能與	-14735
自慎	-14736
自西	-14737
至四	-14738
致書	-14739
舁匱	-14740
與妻	-14741
與婦	-14742
與水	-14743
與血	-14744
艱難	-14745
莫測	-14746
萬萬	-14747
蒙面	-14748
蔽之	-14749
虜之	-14750
蚱蜢	-14751
蝻蝗	-14752
行也	-14753
行徑	-14754
衣衣	-14755
衣麻	-14756
衰殘	-14757
被掠	-14758
西子	-14759
西弗	-14760
見一	-14761
見也	-14762
見奪	-14763
見折	-14764
見棄	-14765
親屬	-14766
言語	-14767
詣王	-14768
誇者	-14769
誓許	-14770
請爾	-14771
諸女	-14772
豁免	-14773
豈無	-14774
負其	-14775
負軛	-14776
貨品	-14777
贖金	-14778
軀幹	-14779
近之	-14780
迦撒	-14781
迦瑪	-14782
迫之	-14783
逆之	-14784
逆我	-14785
通商	-14786
遁於	-14787
遇難	-14788
遍於	-14789
遭禍	-14790
選民	-14791
遺業	-14792
邪術	-14793
酒醡	-14794
鑿石	-14795
降之	-14796
除之	-14797
雅立	-14798
集爾	-14799
集而	-14800
難中	-14801
雲中	-14802
需之	-14803
霄漢	-14804
鞠躬	-14805
顚蹶	-14806
顫動	-14807
風聲	-14808
颶風	-14809
養之	-14810
高岡	-14811
aal	-14812
buw	-14813
duɔ	-14814
hai	-14815
kri	-14816
kua	-14817
mem	-14818
nam	-14819
omu	-14820
pen	-14821
pua	-14822
rei	-14823
ses	-14824
twɛ	-14825
ɛfɛ	-14826
▁us	-14827
▁一人	-14828
▁不使	-14829
▁不再	-14830
▁不釋	-14831
▁且凡	-14832
▁中懷	-14833
▁乃召	-14834
▁乃返	-14835
▁事之	-14836
▁二者	-14837
▁亞利	-14838
▁亞吉	-14839
▁亞大	-14840
▁亞摩	-14841
▁亦獻	-14842
▁人心	-14843
▁人皆	-14844
▁今彼	-14845
▁他拉	-14846
▁他瑪	-14847
▁以之	-14848
▁以守	-14849
▁以實	-14850
▁以弗	-14851
▁以彰	-14852
▁以救	-14853
▁以獻	-14854
▁以祭	-14855
▁以笏	-14856
▁以膏	-14857
▁以銀	-14858
▁使居	-14859
▁俱以	-14860
▁俾民	-14861
▁偽善	-14862
▁傾覆	-14863
▁僕曰	-14864
▁充以	-14865
▁其下	-14866
▁其告	-14867
▁其夫	-14868
▁其往	-14869
▁其怒	-14870
▁其智	-14871
▁其為	-14872
▁其畧	-14873
▁其肉	-14874
▁其道	-14875
▁其間	-14876
▁凡聞	-14877
▁則由	-14878
▁則自	-14879
▁南方	-14880
▁卜筮	-14881
▁即以	-14882
▁即由	-14883
▁又如	-14884
▁又為	-14885
▁又生	-14886
▁友朋	-14887
▁可乎	-14888
▁可食	-14889
▁告以	-14890
▁哈薛	-14891
▁哈難	-14892
▁四境	-14893
▁因無	-14894
▁土壤	-14895
▁在諸	-14896
▁夏甲	-14897
▁多人	-14898
▁天上	-14899
▁如前	-14900
▁宜釋	-14901
▁富者	-14902
▁將得	-14903
▁尚在	-14904
▁就而	-14905
▁已得	-14906
▁巴力	-14907
▁希弗	-14908
▁希臘	-14909
▁庶可	-14910
▁庶幾	-14911
▁彼未	-14912
▁彼無	-14913
▁彼至	-14914
▁往來	-14915
▁必自	-14916
▁必致	-14917
▁恆久	-14918
▁悉告	-14919
▁悉歸	-14920
▁惟王	-14921
▁應曰	-14922
▁我力	-14923
▁我受	-14924
▁我向	-14925
▁我如	-14926
▁我屬	-14927
▁我無	-14928
▁我緣	-14929
▁所諭	-14930
▁拉吉	-14931
▁拿鶴	-14932
▁敵必	-14933
▁既而	-14934
▁昔有	-14935
▁暨厥	-14936
▁書亞	-14937
▁有多	-14938
▁正直	-14939
▁此其	-14940
▁此諸	-14941
▁殘賊	-14942
▁每日	-14943
▁注目	-14944
▁海水	-14945
▁災禍	-14946
▁無子	-14947
▁燈臺	-14948
▁爾且	-14949
▁爾信	-14950
▁爾即	-14951
▁爾名	-14952
▁爾妻	-14953
▁爾敵	-14954
▁爾猶	-14955
▁爾知	-14956
▁爾聞	-14957
▁爾足	-14958
▁牡羊	-14959
▁猶未	-14960
▁生於	-14961
▁生物	-14962
▁由於	-14963
▁當告	-14964
▁當於	-14965
▁當知	-14966
▁皆當	-14967
▁盡皆	-14968
▁眾女	-14969
▁矜憫	-14970
▁知識	-14971
▁碎其	-14972
▁示以	-14973
▁祝謝	-14974
▁稱為	-14975
▁稱頌	-14976
▁窘逐	-14977
▁立拿	-14978
▁立為	-14979
▁約珥	-14980
▁終必	-14981
▁置諸	-14982
▁羣羊	-14983
▁而以	-14984
▁而受	-14985
▁而從	-14986
▁而盡	-14987
▁而知	-14988
▁而食	-14989
▁腰束	-14990
▁臣僕	-14991
▁自是	-14992
▁自為	-14993
▁與所	-14994
▁荊棘	-14995
▁萬物	-14996
▁蓋已	-14997
▁蓋非	-14998
▁行惡	-14999
▁行淫	-15000
▁術士	-15001
▁見殺	-15002
▁該隱	-15003
▁請王	-15004
▁譬彼	-15005
▁豈得	-15006
▁較彼	-15007
▁載於	-15008
▁迦密	-15009
▁迦米	-15010
▁迦薩	-15011
▁遂出	-15012
▁遂至	-15013
▁遂語	-15014
▁遂返	-15015
▁遇一	-15016
▁遇險	-15017
▁鄰里	-15018
▁雅哈	-15019
▁雅弗	-15020
▁集於	-15021
▁離乎	-15022
▁預言	-15023
▁願彼	-15024
▁顯爾	-15025
▁饑饉	-15026
▁首日	-15027
▁驅逐	-15028
一人曰	-15029
一歲之	-15030
七使者	-15031
三十肘	-15032
之姊妹	-15033
之巨擘	-15034
之於彼	-15035
之班次	-15036
之美地	-15037
之誡命	-15038
二十年	-15039
五百人	-15040
亞哈斯	-15041
亞實突	-15042
人以利	-15043
人拿伯	-15044
他使者	-15045
依爾言	-15046
依肉體	-15047
偶像者	-15048
僕大衛	-15049
其人也	-15050
其使者	-15051
其偶像	-15052
其所產	-15053
其昆弟	-15054
其貨財	-15055
出其境	-15056
十二年	-15057
及他祭	-15058
及猶大	-15059
可食之	-15060
哥尼雅	-15061
回厥罰	-15062
在其前	-15063
在爾手	-15064
多比雅	-15065
奉事之	-15066
奏王曰	-15067
如是行	-15068
守衛室	-15069
宦官長	-15070
導我入	-15071
導我至	-15072
山地之	-15073
崇事之	-15074
巴蘭曰	-15075
律所載	-15076
得其業	-15077
忠信之	-15078
我儕為	-15079
我所悅	-15080
我所惡	-15081
我所欲	-15082
我所行	-15083
我聖名	-15084
我震怒	-15085
所不當	-15086
所未識	-15087
所為者	-15088
承斯土	-15089
摘葡萄	-15090
摩押地	-15091
於主前	-15092
於其民	-15093
於地之	-15094
於地兮	-15095
於山巔	-15096
於爾室	-15097
於爾家	-15098
於爾邑	-15099
於田間	-15100
於肉體	-15101
有二十	-15102
橄欖樹	-15103
歡欣兮	-15104
此而行	-15105
永世之	-15106
汲淪溪	-15107
為之備	-15108
為我子	-15109
為爾有	-15110
無所得	-15111
爾所當	-15112
祭偶像	-15113
祭司曰	-15114
稱我為	-15115
立之約	-15116
立爾為	-15117
米利巴	-15118
米書蘭	-15119
經載云	-15120
者之目	-15121
而出者	-15122
而歸之	-15123
而誓者	-15124
耶布斯	-15125
聽其言	-15126
腓力士	-15127
至上者	-15128
至於死	-15129
與基督	-15130
與我同	-15131
與我言	-15132
見殺者	-15133
見異象	-15134
視之為	-15135
託我名	-15136
記有云	-15137
該亞法	-15138
諭之曰	-15139
諸王之	-15140
謂王曰	-15141
責爾以	-15142
賜爾之	-15143
踐其言	-15144
逐之出	-15145
錫之地	-15146
錫安山	-15147
門徒也	-15148
除酵節	-15149
預言之	-15150
魯雅子	-15151
aafa	-15152
amni	-15153
anna	-15154
bedi	-15155
beni	-15156
brɛe	-15157
buro	-15158
bɔni	-15159
dabi	-15160
ente	-15161
fani	-15162
fiaa	-15163
fude	-15164
kaeɛ	-15165
krɔn	-15166
kuru	-15167
kyim	-15168
laia	-15169
meeɛ	-15170
mere	-15171
mmɔn	-15172
muel	-15173
nnam	-15174
ntɛm	-15175
nɔne	-15176
owaa	-15177
pamm	-15178
pini	-15179
pɛsɛ	-15180
sael	-15181
sebu	-15182
siam	-15183
taol	-15184
tɛtɛ	-15185
umma	-15186
unum	-15187
▁buo	-15188
▁dim	-15189
▁dor	-15190
▁dwɛ	-15191
▁edu	-15192
▁gir	-15193
▁gol	-15194
▁lus	-15195
▁mal	-15196
▁nye	-15197
▁oko	-15198
▁put	-15199
▁tam	-15200
▁uri	-15201
▁yab	-15202
▁yah	-15203
▁ɔfi	-15204
▁ɔfɛ	-15205
▁ɛsa	-15206
▁上帝使	-15207
▁不可食	-15208
▁不復為	-15209
▁亞比該	-15210
▁亦無有	-15211
▁亦若是	-15212
▁以為己	-15213
▁依其所	-15214
▁其昆弟	-15215
▁則不得	-15216
▁則爾之	-15217
▁加利亞	-15218
▁勿懼之	-15219
▁即我儕	-15220
▁即耶穌	-15221
▁原文為	-15222
▁及猶大	-15223
▁及長老	-15224
▁在上帝	-15225
▁多比雅	-15226
▁大衛與	-15227
▁如爾所	-15228
▁憐恤我	-15229
▁我不復	-15230
▁我不挽	-15231
▁我亦必	-15232
▁我使之	-15233
▁我保羅	-15234
▁我女歟	-15235
▁我將使	-15236
▁我必絕	-15237
▁我民歟	-15238
▁我知其	-15239
▁我見之	-15240
▁我言此	-15241
▁所得之	-15242
▁所行於	-15243
▁拉班曰	-15244
▁拯我於	-15245
▁提哥亞	-15246
▁散之於	-15247
▁斯時也	-15248
▁是時也	-15249
▁有先知	-15250
▁爾必死	-15251
▁爾曹乃	-15252
▁瑪他尼	-15253
▁眾先知	-15254
▁約伯曰	-15255
▁約押曰	-15256
▁細基利	-15257
▁而上帝	-15258
▁而不能	-15259
▁而耶穌	-15260
▁耶穌之	-15261
▁耶穌始	-15262
▁耶羅罕	-15263
▁至七日	-15264
▁與其類	-15265
▁蓋我必	-15266
▁誠所願	-15267
▁遂遣人	-15268
▁雅各家	-15269
▁願爾曹	-15270
上帝之會	-15271
上帝之能	-15272
之上帝歟	-15273
之亞羅珥	-15274
之以色列	-15275
之子雅各	-15276
五分之一	-15277
亞希多弗	-15278
亡於鋒刃	-15279
以利沙曰	-15280
加利利之	-15281
及酬恩祭	-15282
在天之父	-15283
執兵之士	-15284
子瑪拿西	-15285
希西家曰	-15286
惡人之手	-15287
我儕之父	-15288
按手其首	-15289
於巴比倫	-15290
於爾前兮	-15291
族之牧伯	-15292
有數卷增	-15293
未來之事	-15294
棄耶和華	-15295
欣嫩子谷	-15296
死者復起	-15297
流血之罪	-15298
滿於聖靈	-15299
為猶太人	-15300
為贖罪祭	-15301
烈火之爐	-15302
獨生之子	-15303
珥子巴蘭	-15304
生命之樹	-15305
生命而誓	-15306
異族之女	-15307
異族之神	-15308
秉公行義	-15309
約沙法曰	-15310
耶和華乎	-15311
耶和華兮	-15312
耶和華怒	-15313
耶和華殿	-15314
與其鄉里	-15315
與猶大人	-15316
萬軍之主	-15317
逾越節羔	-15318
達薛西王	-15319
金銀銅鐵	-15320
骨肉之親	-15321
aadoo	-15322
bobom	-15323
domee	-15324
fania	-15325
frafo	-15326
kyɛne	-15327
mmɔbɔ	-15328
pamfo	-15329
pereɛ	-15330
porɔw	-15331
rebuo	-15332
rebuw	-15333
silai	-15334
twɛdɛ	-15335
wuwui	-15336
▁afam	-15337
▁akub	-15338
▁asrɛ	-15339
▁buei	-15340
▁bɔre	-15341
▁bɛdɔ	-15342
▁bɛpɛ	-15343
▁dwoe	-15344
▁dɛre	-15345
▁elon	-15346
▁enan	-15347
▁fann	-15348
▁gaal	-15349
▁gede	-15350
▁hagi	-15351
▁haro	-15352
▁hata	-15353
▁hele	-15354
▁herɛ	-15355
▁kari	-15356
▁kɔtɔ	-15357
▁mada	-15358
▁maeɛ	-15359
▁mare	-15360
▁matɔ	-15361
▁mfuw	-15362
▁mɛtu	-15363
▁mɛtɔ	-15364
▁nhaw	-15365
▁niko	-15366
▁nnhu	-15367
▁nsrɛ	-15368
▁ntwɛ	-15369
▁ofra	-15370
▁onan	-15371
▁otua	-15372
▁pamo	-15373
▁pela	-15374
▁reha	-15375
▁resa	-15376
▁siam	-15377
▁sofo	-15378
▁soko	-15379
▁sosɔ	-15380
▁sɛpɛ	-15381
▁teɛɛ	-15382
▁tola	-15383
▁wadɔ	-15384
▁watɔ	-15385
▁wesa	-15386
▁woba	-15387
▁woro	-15388
▁wuda	-15389
▁wuse	-15390
▁yaya	-15391
▁yɛbɔ	-15392
▁yɛdɔ	-15393
▁yɛma	-15394
▁ɔfee	-15395
▁ɔguu	-15396
▁ɔhen	-15397
▁ɔnnɔ	-15398
▁ɔpoo	-15399
▁ɔsen	-15400
▁ɔsrɛ	-15401
▁ɔtew	-15402
▁ɛsow	-15403
▁ɛtoo	-15404
▁不聽我言	-15405
▁乃耶和華	-15406
▁亞拿突人	-15407
▁亞比亞他	-15408
▁亞米拿達	-15409
▁以利以謝	-15410
▁以奉事我	-15411
▁以精金作	-15412
▁何益之有	-15413
▁俾眾目睹	-15414
▁偽善者乎	-15415
▁免於死亡	-15416
▁其上為瑪	-15417
▁其外無他	-15418
▁其有福兮	-15419
▁其畧如左	-15420
▁凡其所為	-15421
▁古文抄本	-15422
▁哈沙比雅	-15423
▁尚其興起	-15424
▁彼為我民	-15425
▁循耶和華	-15426
▁必致之死	-15427
▁我但以理	-15428
▁我何人斯	-15429
▁我外無他	-15430
▁我將何以	-15431
▁我將使之	-15432
▁我必使之	-15433
▁我必偕爾	-15434
▁按手其首	-15435
▁爾其慎之	-15436
▁爾其興起	-15437
▁獻為燔祭	-15438
▁禍哉我也	-15439
▁米拉利裔	-15440
▁而崇拜之	-15441
▁而服事之	-15442
▁耶和華則	-15443
▁耶和華復	-15444
▁耶和華擊	-15445
▁耶和華謂	-15446
▁自天而降	-15447
▁至三至四	-15448
▁至今猶存	-15449
▁至於盡滅	-15450
▁越至七日	-15451
▁遂語之曰	-15452
▁遲於發怒	-15453
一百他連得	-15454
亞蘭王哈薛	-15455
付之於爾手	-15456
以色列國位	-15457
便雅憫支派	-15458
原影像本作	-15459
尋求耶和華	-15460
我所命爾者	-15461
為我名建室	-15462
由死中復起	-15463
祭偶像之物	-15464
耶和華所諭	-15465
葬於大衛城	-15466
詢於耶和華	-15467
謂其門徒曰	-15468
非利士人戰	-15469
amporɔ	-15470
dwemma	-15471
frɛfoɔ	-15472
kɔnkɔn	-15473
saloni	-15474
sinfoɔ	-15475
sotire	-15476
tontɔn	-15477
tuafoɔ	-15478
tuatua	-15479
yammoɔ	-15480
▁abunu	-15481
▁abɛbɔ	-15482
▁adaia	-15483
▁afeda	-15484
▁afura	-15485
▁ahane	-15486
▁ahyew	-15487
▁akuru	-15488
▁anini	-15489
▁asuwa	-15490
▁asɛpɛ	-15491
▁atumi	-15492
▁awudi	-15493
▁bafua	-15494
▁betie	-15495
▁bosea	-15496
▁bosra	-15497
▁bɛbue	-15498
▁bɛguu	-15499
▁bɛnom	-15500
▁bɛwuo	-15501
▁dasuo	-15502
▁dison	-15503
▁dodom	-15504
▁duban	-15505
▁edrei	-15506
▁geber	-15507
▁horma	-15508
▁karmi	-15509
▁kuduo	-15510
▁kurae	-15511
▁kyɛne	-15512
▁kɔdaa	-15513
▁kɔfrɛ	-15514
▁kɔsom	-15515
▁makum	-15516
▁manso	-15517
▁manyɛ	-15518
▁marko	-15519
▁medaa	-15520
▁meteɛ	-15521
▁mfata	-15522
▁midii	-15523
▁moama	-15524
▁mobɛn	-15525
▁monim	-15526
▁motie	-15527
▁mɛfrɛ	-15528
▁nahas	-15529
▁neria	-15530
▁nkɔda	-15531
▁nnyae	-15532
▁nyane	-15533
▁nyowa	-15534
▁onnya	-15535
▁otwaa	-15536
▁owifo	-15537
▁pataa	-15538
▁pisga	-15539
▁rehyɛ	-15540
▁renyi	-15541
▁safat	-15542
▁serew	-15543
▁sereɛ	-15544
▁sobal	-15545
▁tanee	-15546
▁tapua	-15547
▁tenae	-15548
▁tubal	-15549
▁wafom	-15550
▁wasti	-15551
▁woada	-15552
▁wofrɛ	-15553
▁wosii	-15554
▁wosiw	-15555
▁wɔada	-15556
▁wɔpae	-15557
▁wɔpoo	-15558
▁wɔyaw	-15559
▁yairo	-15560
▁yehuu	-15561
▁yenhu	-15562
▁yeter	-15563
▁yetro	-15564
▁yɛaka	-15565
▁yɛakɔ	-15566
▁yɛkae	-15567
▁yɛsom	-15568
▁yɛtee	-15569
▁ɔhɔho	-15570
▁ɔkaee	-15571
▁ɔkyɛɛ	-15572
▁ɔmmra	-15573
▁ɔsene	-15574
▁ɔtiee	-15575
▁ɔtoaa	-15576
▁ɔwerɛ	-15577
▁ɛbɛkɔ	-15578
▁ɛhyɛn	-15579
▁先知耶利米	-15580
▁呼籲耶和華	-15581
▁廣一肘有半	-15582
▁為耶和華所	-15583
▁當以為不潔	-15584
▁耶和華又曰	-15585
▁葬於大衛城	-15586
▁釘之十字架	-15587
利巴嫩之香柏	-15588
加低斯巴尼亞	-15589
從事於會幕者	-15590
所賜為業之地	-15591
為以色列士師	-15592
猶大王約雅敬	-15593
祭司耶何耶大	-15594
kumaboɔ	-15595
suatɛtɛ	-15596
unahuna	-15597
▁aboomu	-15598
▁aborɔn	-15599
▁adammɔ	-15600
▁adidii	-15601
▁afaafa	-15602
▁afasuw	-15603
▁ahwete	-15604
▁anikan	-15605
▁annane	-15606
▁anokwa	-15607
▁apataa	-15608
▁apɛdeɛ	-15609
▁asɛdeɛ	-15610
▁barnea	-15611
▁betwam	-15612
▁bukyia	-15613
▁bɛboro	-15614
▁bɛdidi	-15615
▁bɛhwɛɛ	-15616
▁bɛkata	-15617
▁bɛsosɔ	-15618
▁dabeni	-15619
▁dwiraa	-15620
▁dwirii	-15621
▁efrata	-15622
▁estaol	-15623
▁helafo	-15624
▁hinhim	-15625
▁huammɔ	-15626
▁kyidɔm	-15627
▁kɔkumm	-15628
▁menhwɛ	-15629
▁mennue	-15630
▁merebe	-15631
▁mesɛee	-15632
▁meteaa	-15633
▁mmabun	-15634
▁mmobom	-15635
▁mmɛhwɛ	-15636
▁moagya	-15637
▁moagye	-15638
▁mobisa	-15639
▁monnom	-15640
▁mummue	-15641
▁nnuane	-15642
▁nnwamm	-15643
▁nsakyi	-15644
▁ntasuo	-15645
▁nyowaa	-15646
▁obetie	-15647
▁odwuma	-15648
▁pedaia	-15649
▁peteeɛ	-15650
▁rehuru	-15651
▁rennye	-15652
▁sorɔno	-15653
▁sɔreeɛ	-15654
▁tiatia	-15655
▁watena	-15656
▁watene	-15657
▁woakum	-15658
▁woatie	-15659
▁wobɛbu	-15660
▁wobɛfa	-15661
▁wobɛsi	-15662
▁wodidi	-15663
▁wosane	-15664
▁wɔaboa	-15665
▁wɔadua	-15666
▁wɔahwɛ	-15667
▁wɔammu	-15668
▁wɔatew	-15669
▁wɔbɛbu	-15670
▁wɔdome	-15671
▁wɔmmoa	-15672
▁wɔnhyɛ	-15673
▁wɔnnka	-15674
▁wɔntee	-15675
▁wɔrenn	-15676
▁wɔresu	-15677
▁wɔrete	-15678
▁wɔteaa	-15679
▁wɔteam	-15680
▁yishar	-15681
▁yɛbɛfa	-15682
▁yɛnhwɛ	-15683
▁yɛnsom	-15684
▁ɔbɛsan	-15685
▁ɔremmu	-15686
▁ɔtamfo	-15687
▁ɛrenka	-15688
▁如耶和華所言	-15689
▁我不挽回厥罰	-15690
▁於是以色列人	-15691
▁耶和華上帝歟	-15692
亞伯拉罕之上帝	-15693
gyentwie	-15694
kyinkyin	-15695
uonyamfo	-15696
▁adwempa	-15697
▁agyedeɛ	-15698
▁ahopere	-15699
▁akaadoo	-15700
▁anakfoɔ	-15701
▁asennua	-15702
▁asomsɛm	-15703
▁ayɛyɛde	-15704
▁batseba	-15705
▁bɛtoaeɛ	-15706
▁diyifoɔ	-15707
▁herodia	-15708
▁hohoroo	-15709
▁kadmiel	-15710
▁kilikia	-15711
▁kohyiaa	-15712
▁kokuroo	-15713
▁kronnyɛ	-15714
▁kyekyɛɛ	-15715
▁mfofowa	-15716
▁mmoroso	-15717
▁monntie	-15718
▁monsuro	-15719
▁monyiyi	-15720
▁mpataku	-15721
▁mprɛngo	-15722
▁mummisa	-15723
▁mɛhyira	-15724
▁nhohoro	-15725
▁nnareka	-15726
▁otukorɔ	-15727
▁pirebuo	-15728
▁renhunu	-15729
▁sebadia	-15730
▁sefania	-15731
▁serebia	-15732
▁teasefo	-15733
▁torofoɔ	-15734
▁wansane	-15735
▁woantie	-15736
▁wobisae	-15737
▁wokyerɛ	-15738
▁wonhunu	-15739
▁wonsuro	-15740
▁wɔakata	-15741
▁wɔakora	-15742
▁wɔasuro	-15743
▁wɔayeyɛ	-15744
▁wɔayiyi	-15745
▁wɔbɛboa	-15746
▁wɔbɛsoa	-15747
▁wɔbɛwie	-15748
▁wɔdwene	-15749
▁wɔkyiri	-15750
▁wɔrenka	-15751
▁wɔresom	-15752
▁wɔtasee	-15753
▁wɔtetew	-15754
▁wɔtotɔɔ	-15755
▁wɔyiyii	-15756
▁yegyina	-15757
▁yɛtenaa	-15758
▁ɔboafoɔ	-15759
▁ɔdehyeɛ	-15760
▁ɔhwɛfoɔ	-15761
▁ɔrekorɔ	-15762
▁乃爾上帝耶和華	-15763
▁亞希甘子基大利	-15764
▁俾知我乃耶和華	-15765
▁士子與𠵽唎㘔人	-15766
▁此在恆獻之燔祭	-15767
爾上帝耶和華之言	-15768
▁abomfiaa	-15769
▁abrammoɔ	-15770
▁ahempoma	-15771
▁ahenkuro	-15772
▁ahoyeraw	-15773
▁ahuntaeɛ	-15774
▁akorɔmfo	-15775
▁akwatafo	-15776
▁amannɔne	-15777
▁anyinsɛn	-15778
▁barsilai	-15779
▁belsasar	-15780
▁gamaliel	-15781
▁megyinaa	-15782
▁merentie	-15783
▁mmasugya	-15784
▁mmubuafo	-15785
▁munnyina	-15786
▁mɛhwehwɛ	-15787
▁netofani	-15788
▁nkyeremu	-15789
▁nnamnnam	-15790
▁ntɛmntɛm	-15791
▁sɔresɔre	-15792
▁tesaloni	-15793
▁wobɛfiri	-15794
▁wɔadwiri	-15795
▁wɔakyere	-15796
▁wɔakyerɛ	-15797
▁wɔanwuwu	-15798
▁wɔkamfoo	-15799
▁wɔkunkum	-15800
▁wɔnkyerɛ	-15801
▁yebetumi	-15802
▁yebusini	-15803
▁ɔboaboaa	-15804
▁ɔfɛdifoɔ	-15805
▁ɔrebɛsɛe	-15806
▁ɛberedum	-15807
▁以藍紫絳三色之縷	-15808
▁侍衛長尼布撒拉旦	-15809
▁尼探雅子以實瑪利	-15810
▁彼則知我乃耶和華	-15811
▁耶何耶大子比拿雅	-15812
▁萬軍之上帝耶和華	-15813
上帝耶和華之名建室	-15814
▁abusuakuw	-15815
▁aduanekan	-15816
▁adɔkɔdɔkɔ	-15817
▁agyimifoɔ	-15818
▁ahodwiriw	-15819
▁atɛntɛbɛn	-15820
▁bisabisaa	-15821
▁fitafitaa	-15822
▁manasefoɔ	-15823
▁mehwehwɛɛ	-15824
▁merennane	-15825
▁mfirihyia	-15826
▁monhyehyɛ	-15827
▁nhyɛsofoɔ	-15828
▁nkonimdie	-15829
▁nkyerɛase	-15830
▁ntwɛtwɛdɛ	-15831
▁samariafo	-15832
▁wɔbɛhyira	-15833
▁wɔrentena	-15834
▁wɔtwitwaa	-15835
▁yehosadak	-15836
▁ɔsɛnkafoɔ	-15837
▁我乃爾之上帝耶和華	-15838
▁abandenden	-15839
▁abosonhunu	-15840
▁adehunufoɔ	-15841
▁adekorabea	-15842
▁adunsinfoɔ	-15843
▁ahurisidie	-15844
▁amumuyɛsɛm	-15845
▁anisuatɛtɛ	-15846
▁aniɛdenfoɔ	-15847
▁aperepereɛ	-15848
▁benyaminni	-15849
▁bereamporɔ	-15850
▁kukuduuduu	-15851
▁kɔntɔnkrɔn	-15852
▁mmɔbɔmmɔbɔ	-15853
▁mobɛhwehwɛ	-15854
▁monwiinwii	-15855
▁morehwehwɛ	-15856
▁ntaasotire	-15857
▁nuammaanom	-15858
▁sikanibere	-15859
▁我指維生之耶和華而誓	-15860
▁awaresɛefoɔ	-15861
▁nantwibereɛ	-15862
▁nkunkumaboɔ	-15863
▁ɔkyerɛkyerɛ	-15864
▁nkurukyireeɛ	-15865
▁ntafowayifoɔ	-15866
▁wogyinagyina	-15867
▁mmɔborɔhunufo	-15868
▁公	-15869
▁刺	-15870
▁力	-15871
▁助	-15872
▁囚	-15873
▁墮	-15874
▁奔	-15875
▁害	-15876
▁宴	-15877
▁寬	-15878
▁尤	-15879
▁帕	-15880
▁志	-15881
▁忘	-15882
▁愈	-15883
▁戴	-15884
▁扑	-15885
▁扶	-15886
▁掘	-15887
▁旁	-15888
▁杖	-15889
▁溪	-15890
▁濟	-15891
▁烹	-15892
▁營	-15893
▁犯	-15894
▁獸	-15895
▁玷	-15896
▁盤	-15897
▁督	-15898
▁磐	-15899
▁竭	-15900
▁節	-15901
▁絳	-15902
▁縛	-15903
▁肥	-15904
▁脣	-15905
▁興	-15906
▁艾	-15907
▁苦	-15908
▁茲	-15909
▁草	-15910
▁荒	-15911
▁蝮	-15912
▁角	-15913
▁誓	-15914
▁讒	-15915
▁賦	-15916
▁連	-15917
▁遘	-15918
▁避	-15919
▁邊	-15920
▁鈐	-15921
▁鐵	-15922
▁陟	-15923
▁雜	-15924
▁體	-15925
一僕	-15926
一段	-15927
一靈	-15928
七萬	-15929
下之	-15930
下山	-15931
不出	-15932
不易	-15933
主前	-15934
主所	-15935
主母	-15936
乃往	-15937
乃由	-15938
[...]
